{
  "version": "1.0",
  "truncation": null,
  "padding": null,
  "added_tokens": [
    {
      "id": 0,
      "content": "<|endoftext|>",
      "single_word": false,
      "lstrip": false,
      "rstrip": false,
      "normalized": false,
      "special": true
    },
    {
      "id": 1,
      "content": "<pad>",
      "single_word": false,
      "lstrip": false,
      "rstrip": false,
      "normalized": false,
      "special": true
    }
  ],
  "normalizer": null,
  "pre_tokenizer": {
    "type": "ByteLevel",
    "add_prefix_space": false,
    "trim_offsets": true,
    "use_regex": true
  },
  "post_processor": {
    "type": "ByteLevel",
    "add_prefix_space": true,
    "trim_offsets": true,
    "use_regex": true
  },
  "decoder": {
    "type": "ByteLevel",
    "add_prefix_space": true,
    "trim_offsets": true,
    "use_regex": true
  },
  "model": {
    "type": "BPE",
    "dropout": null,
    "unk_token": null,
    "continuing_subword_prefix": null,
    "end_of_word_suffix": null,
    "fuse_unk": false,
    "byte_fallback": false,
    "ignore_merges": false,
    "vocab": {
      "<|endoftext|>": 0,
      "<pad>": 1,
      "!": 2,
      "\"": 3,
      "#": 4,
      "$": 5,
      "%": 6,
      "&": 7,
      "'": 8,
      "(": 9,
      ")": 10,
      "*": 11,
      "+": 12,
      ",": 13,
      "-": 14,
      ".": 15,
      "/": 16,
      "0": 17,
      "1": 18,
      "2": 19,
      "3": 20,
      "4": 21,
      "5": 22,
      "6": 23,
      "7": 24,
      "8": 25,
      "9": 26,
      ":": 27,
      ";": 28,
      "<": 29,
      "=": 30,
      ">": 31,
      "?": 32,
      "@": 33,
      "A": 34,
      "B": 35,
      "C": 36,
      "D": 37,
      "E": 38,
      "F": 39,
      "G": 40,
      "H": 41,
      "I": 42,
      "J": 43,
      "K": 44,
      "L": 45,
      "M": 46,
      "N": 47,
      "O": 48,
      "P": 49,
      "Q": 50,
      "R": 51,
      "S": 52,
      "T": 53,
      "U": 54,
      "V": 55,
      "W": 56,
      "X": 57,
      "Y": 58,
      "Z": 59,
      "[": 60,
      "\\": 61,
      "]": 62,
      "^": 63,
      "_": 64,
      "`": 65,
      "a": 66,
      "b": 67,
      "c": 68,
      "d": 69,
      "e": 70,
      "f": 71,
      "g": 72,
      "h": 73,
      "i": 74,
      "j": 75,
      "k": 76,
      "l": 77,
      "m": 78,
      "n": 79,
      "o": 80,
      "p": 81,
      "q": 82,
      "r": 83,
      "s": 84,
      "t": 85,
      "u": 86,
      "v": 87,
      "w": 88,
      "x": 89,
      "y": 90,
      "z": 91,
      "{": 92,
      "|": 93,
      "}": 94,
      "~": 95,
      "¡": 96,
      "¢": 97,
      "£": 98,
      "¤": 99,
      "¥": 100,
      "¦": 101,
      "§": 102,
      "¨": 103,
      "©": 104,
      "ª": 105,
      "«": 106,
      "¬": 107,
      "®": 108,
      "¯": 109,
      "°": 110,
      "±": 111,
      "²": 112,
      "³": 113,
      "´": 114,
      "µ": 115,
      "¶": 116,
      "·": 117,
      "¸": 118,
      "¹": 119,
      "º": 120,
      "»": 121,
      "¼": 122,
      "½": 123,
      "¾": 124,
      "¿": 125,
      "À": 126,
      "Á": 127,
      "Â": 128,
      "Ã": 129,
      "Ä": 130,
      "Å": 131,
      "Æ": 132,
      "Ç": 133,
      "È": 134,
      "É": 135,
      "Ê": 136,
      "Ë": 137,
      "Ì": 138,
      "Í": 139,
      "Î": 140,
      "Ï": 141,
      "Ð": 142,
      "Ñ": 143,
      "Ò": 144,
      "Ó": 145,
      "Ô": 146,
      "Õ": 147,
      "Ö": 148,
      "×": 149,
      "Ø": 150,
      "Ù": 151,
      "Ú": 152,
      "Û": 153,
      "Ü": 154,
      "Ý": 155,
      "Þ": 156,
      "ß": 157,
      "à": 158,
      "á": 159,
      "â": 160,
      "ã": 161,
      "ä": 162,
      "å": 163,
      "æ": 164,
      "ç": 165,
      "è": 166,
      "é": 167,
      "ê": 168,
      "ë": 169,
      "ì": 170,
      "í": 171,
      "î": 172,
      "ï": 173,
      "ð": 174,
      "ñ": 175,
      "ò": 176,
      "ó": 177,
      "ô": 178,
      "õ": 179,
      "ö": 180,
      "÷": 181,
      "ø": 182,
      "ù": 183,
      "ú": 184,
      "û": 185,
      "ü": 186,
      "ý": 187,
      "þ": 188,
      "ÿ": 189,
      "Ā": 190,
      "ā": 191,
      "Ă": 192,
      "ă": 193,
      "Ą": 194,
      "ą": 195,
      "Ć": 196,
      "ć": 197,
      "Ĉ": 198,
      "ĉ": 199,
      "Ċ": 200,
      "ċ": 201,
      "Č": 202,
      "č": 203,
      "Ď": 204,
      "ď": 205,
      "Đ": 206,
      "đ": 207,
      "Ē": 208,
      "ē": 209,
      "Ĕ": 210,
      "ĕ": 211,
      "Ė": 212,
      "ė": 213,
      "Ę": 214,
      "ę": 215,
      "Ě": 216,
      "ě": 217,
      "Ĝ": 218,
      "ĝ": 219,
      "Ğ": 220,
      "ğ": 221,
      "Ġ": 222,
      "ġ": 223,
      "Ģ": 224,
      "ģ": 225,
      "Ĥ": 226,
      "ĥ": 227,
      "Ħ": 228,
      "ħ": 229,
      "Ĩ": 230,
      "ĩ": 231,
      "Ī": 232,
      "ī": 233,
      "Ĭ": 234,
      "ĭ": 235,
      "Į": 236,
      "į": 237,
      "İ": 238,
      "ı": 239,
      "Ĳ": 240,
      "ĳ": 241,
      "Ĵ": 242,
      "ĵ": 243,
      "Ķ": 244,
      "ķ": 245,
      "ĸ": 246,
      "Ĺ": 247,
      "ĺ": 248,
      "Ļ": 249,
      "ļ": 250,
      "Ľ": 251,
      "ľ": 252,
      "Ŀ": 253,
      "ŀ": 254,
      "Ł": 255,
      "ł": 256,
      "Ń": 257,
      "in": 258,
      "Ġa": 259,
      "Ġt": 260,
      "he": 261,
      "on": 262,
      "ti": 263,
      "re": 264,
      "Ġo": 265,
      "te": 266,
      "Ġthe": 267,
      "Ġof": 268,
      "en": 269,
      "Ġs": 270,
      "Ġp": 271,
      "Ġc": 272,
      "Ġin": 273,
      "ra": 274,
      "ro": 275,
      "Ġan": 276,
      "al": 277,
      "tion": 278,
      "as": 279,
      "Ġw": 280,
      "Ġb": 281,
      "es": 282,
      "is": 283,
      "it": 284,
      "Ġd": 285,
      "Ġm": 286,
      "ed": 287,
      "or": 288,
      "ic": 289,
      "Ġand": 290,
      "Ġf": 291,
      "er": 292,
      "an": 293,
      "ol": 294,
      "ar": 295,
      "ec": 296,
      "Ġre": 297,
      "id": 298,
      "ate": 299,
      "ing": 300,
      "at": 301,
      "Ġe": 302,
      "ent": 303,
      "le": 304,
      "os": 305,
      "Ġto": 306,
      "ul": 307,
      "ly": 308,
      "ation": 309,
      "Ġh": 310,
      "Ġn": 311,
      "us": 312,
      "ve": 313,
      "Ġac": 314,
      "ĠT": 315,
      "et": 316,
      "ine": 317,
      "om": 318,
      "Ġth": 319,
      "ac": 320,
      "ph": 321,
      "Ġl": 322,
      "Ġg": 323,
      "uc": 324,
      "ter": 325,
      "ith": 326,
      "um": 327,
      "Ġcon": 328,
      "ce": 329,
      "ĠThe": 330,
      "Ġwith": 331,
      "ur": 332,
      "im": 333,
      "Ġwas": 334,
      "ase": 335,
      "Ġ(": 336,
      "am": 337,
      "un": 338,
      "Ġis": 339,
      "Ġpro": 340,
      "Ġby": 341,
      "ff": 342,
      "el": 343,
      "ere": 344,
      "yl": 345,
      "Ġfor": 346,
      "di": 347,
      "tic": 348,
      "ot": 349,
      "ity": 350,
      "rom": 351,
      "ts": 352,
      "il": 353,
      "ut": 354,
      "lo": 355,
      "Ġv": 356,
      "ig": 357,
      "Ġde": 358,
      "Ġon": 359,
      "ib": 360,
      "Ġst": 361,
      "res": 362,
      "ran": 363,
      "tiv": 364,
      "ted": 365,
      "Ġ1": 366,
      "ated": 367,
      "Ġbe": 368,
      "ĠA": 369,
      "oc": 370,
      "Ġas": 371,
      "og": 372,
      "st": 373,
      "Ġal": 374,
      "Ġch": 375,
      "tive": 376,
      "Ġra": 377,
      "Ġex": 378,
      "se": 379,
      "ym": 380,
      "Ġen": 381,
      "ect": 382,
      "Ġwere": 383,
      "od": 384,
      "Ġres": 385,
      "ab": 386,
      "Ġat": 387,
      "ration": 388,
      "if": 389,
      "Ġthat": 390,
      "Ġfrom": 391,
      "duc": 392,
      "Ġsu": 393,
      "ĠI": 394,
      "ure": 395,
      "ion": 396,
      "ys": 397,
      "Ġactiv": 398,
      "omp": 399,
      "ĠpH": 400,
      "ĠC": 401,
      "Ġor": 402,
      "ow": 403,
      "zym": 404,
      "ir": 405,
      "ain": 406,
      "rac": 407,
      "Ġdi": 408,
      "ell": 409,
      "nt": 410,
      "qu": 411,
      "yp": 412,
      "her": 413,
      "ver": 414,
      "em": 415,
      "yd": 416,
      "ical": 417,
      "Ġcomp": 418,
      "th": 419,
      "Ġeff": 420,
      "op": 421,
      "ents": 422,
      "Ġ2": 423,
      "Ġacid": 424,
      "Ġinc": 425,
      "ag": 426,
      "und": 427,
      "Ġenzym": 428,
      "Ġsp": 429,
      "Ġad": 430,
      "ad": 431,
      "ep": 432,
      "ant": 433,
      "ch": 434,
      "up": 435,
      "Ġactivity": 436,
      "ral": 437,
      "ide": 438,
      "Ġdis": 439,
      "ous": 440,
      "min": 441,
      "ia": 442,
      "iz": 443,
      "Ġare": 444,
      "Ġph": 445,
      "Ġwh": 446,
      "rans": 447,
      "ydro": 448,
      "pp": 449,
      "Ġ3": 450,
      "ĠN": 451,
      "eth": 452,
      "ĠS": 453,
      "ug": 454,
      "ence": 455,
      "hib": 456,
      "ment": 457,
      "ĠP": 458,
      "ich": 459,
      "ific": 460,
      "Ġhe": 461,
      "ose": 462,
      "osph": 463,
      "lu": 464,
      "igh": 465,
      "ri": 466,
      "Ġpre": 467,
      "ox": 468,
      "tor": 469,
      "Ġcell": 470,
      "reas": 471,
      "ess": 472,
      "orm": 473,
      "00": 474,
      "hen": 475,
      "Ġbet": 476,
      "Ġpa": 477,
      "Ġnot": 478,
      "per": 479,
      "ore": 480,
      "Ġcont": 481,
      "Ġsub": 482,
      "Ġconc": 483,
      "ular": 484,
      "tions": 485,
      "Ġper": 486,
      "Ġne": 487,
      "Ġstu": 488,
      "Ġenzyme": 489,
      "Ġsh": 490,
      "ĠM": 491,
      "ay": 492,
      "Ġpres": 493,
      "Ġinhib": 494,
      "ding": 495,
      "gen": 496,
      "Ġ5": 497,
      "ge": 498,
      "Ġle": 499,
      "ip": 500,
      "ten": 501,
      "ges": 502,
      "red": 503,
      "tes": 504,
      "Ġtrans": 505,
      "The": 506,
      "Ġresp": 507,
      "ound": 508,
      "Ġab": 509,
      "ren": 510,
      "tim": 511,
      "ist": 512,
      "Ġwhich": 513,
      "ĠD": 514,
      "Ġob": 515,
      "ros": 516,
      "Ġint": 517,
      "las": 518,
      "ĠH": 519,
      "Ġthan": 520,
      "one": 521,
      "Ġprote": 522,
      "ary": 523,
      "era": 524,
      "Ġ4": 525,
      "ved": 526,
      "Ġapp": 527,
      "ium": 528,
      "Ġblo": 529,
      "duced": 530,
      "Ġit": 531,
      "ub": 532,
      "].": 533,
      "Ġgro": 534,
      "Ġconcent": 535,
      "ĠIn": 536,
      "tid": 537,
      "Ġdiff": 538,
      "Ġco": 539,
      "Ġus": 540,
      "ĠB": 541,
      "Ġconcentration": 542,
      "oth": 543,
      "fter": 544,
      "ther": 545,
      "Ġk": 546,
      "Ġim": 547,
      "Ġse": 548,
      "ties": 549,
      "ects": 550,
      "amine": 551,
      "Ġform": 552,
      "Ġeffect": 553,
      "Ġcar": 554,
      "ue": 555,
      "low": 556,
      "ens": 557,
      "ĠE": 558,
      "ma": 559,
      "ap": 560,
      "est": 561,
      "ations": 562,
      "end": 563,
      "ign": 564,
      "Ġ0": 565,
      "Ġme": 566,
      "Ġpati": 567,
      "ture": 568,
      "ric": 569,
      "Ġ6": 570,
      "ism": 571,
      "Ġthis": 572,
      "Ġinf": 573,
      "iv": 574,
      "rate": 575,
      "olog": 576,
      "Ġox": 577,
      "Ġstudi": 578,
      "amin": 579,
      "Ġprotein": 580,
      "mon": 581,
      "Ġcells": 582,
      "Ġbut": 583,
      "Ġresul": 584,
      "yc": 585,
      "Ġphosph": 586,
      "Ġreac": 587,
      "Ġha": 588,
      "ak": 589,
      "reat": 590,
      "rol": 591,
      "ally": 592,
      "reased": 593,
      "Ġafter": 594,
      "Ġshow": 595,
      "Ġsy": 596,
      "sis": 597,
      "ort": 598,
      "tu": 599,
      "Ġchan": 600,
      "Ġdiffere": 601,
      "Ġbeen": 602,
      "ight": 603,
      "Ġel": 604,
      "ost": 605,
      "ative": 606,
      "inding": 607,
      "uring": 608,
      "cep": 609,
      "Ġ7": 610,
      "Ġgl": 611,
      "ied": 612,
      "Ġhyp": 613,
      "Ġdec": 614,
      "ues": 615,
      "Ġag": 616,
      "Ġhydro": 617,
      "ast": 618,
      "odi": 619,
      "hydro": 620,
      "Ġun": 621,
      "Ġmic": 622,
      "we": 623,
      "rib": 624,
      "pa": 625,
      "Ġspec": 626,
      "wo": 627,
      "tain": 628,
      "Ġli": 629,
      "ron": 630,
      "rop": 631,
      "Ġpatients": 632,
      "rease": 633,
      "ĠF": 634,
      "ree": 635,
      "Ġmet": 636,
      ").": 637,
      "so": 638,
      "ial": 639,
      "Ġdr": 640,
      "Ġmeth": 641,
      "ĠL": 642,
      "Ġsign": 643,
      "act": 644,
      "ari": 645,
      "ition": 646,
      "pha": 647,
      "Ġthese": 648,
      "able": 649,
      "Ġcor": 650,
      "ance": 651,
      "erg": 652,
      "ers": 653,
      "ill": 654,
      "Ġhas": 655,
      "Ġval": 656,
      "tem": 657,
      "ser": 658,
      "Ġass": 659,
      "ulation": 660,
      "Ġgroup": 661,
      "Ġind": 662,
      "ĠG": 663,
      "pl": 664,
      "ween": 665,
      "Ġanti": 666,
      "Ġbeta": 667,
      "Ġdrug": 668,
      "Ġrel": 669,
      "Ġ10": 670,
      "Ġblood": 671,
      "vel": 672,
      "Ġsol": 673,
      "and": 674,
      "ĠK": 675,
      "Ġno": 676,
      "Ġbetween": 677,
      "ective": 678,
      "Ġam": 679,
      "oph": 680,
      "ogen": 681,
      "Ġhave": 682,
      "Ġtwo": 683,
      "Ġfound": 684,
      "hem": 685,
      "Ġsignific": 686,
      "Ġlow": 687,
      "ases": 688,
      "Ġrate": 689,
      "Ġduring": 690,
      "Ġpar": 691,
      "ech": 692,
      "reatment": 693,
      "ll": 694,
      "rain": 695,
      "ĠR": 696,
      "nthe": 697,
      "ress": 698,
      "Ġar": 699,
      "ĠTh": 700,
      "Ġboth": 701,
      "out": 702,
      "Ġdep": 703,
      "Ġmol": 704,
      "Ġlevel": 705,
      "Ġrespon": 706,
      "Ġdeg": 707,
      "av": 708,
      "tial": 709,
      "cy": 710,
      "Ġmed": 711,
      "abol": 712,
      "ized": 713,
      "emb": 714,
      "Ġelect": 715,
      "Ġwe": 716,
      "ater": 717,
      "Ġeffects": 718,
      "ucle": 719,
      "Ġpo": 720,
      "ĠO": 721,
      "Ġpos": 722,
      "ne": 723,
      "Ġobser": 724,
      "Ġsubst": 725,
      "Ġinhibit": 726,
      "Ġsignificant": 727,
      "ystem": 728,
      "all": 729,
      "),": 730,
      "Ġalso": 731,
      "our": 732,
      "ies": 733,
      "embran": 734,
      "Ġinv": 735,
      "ility": 736,
      "raction": 737,
      "ive": 738,
      "ceptor": 739,
      "AD": 740,
      "Ġser": 741,
      "Ġresults": 742,
      "Ġup": 743,
      "ome": 744,
      "duction": 745,
      "Ġpol": 746,
      "bin": 747,
      "Ġrat": 748,
      "co": 749,
      "Ġdeter": 750,
      "Ġpl": 751,
      "Ġhigh": 752,
      "Ġion": 753,
      "ction": 754,
      "tis": 755,
      "Ġsug": 756,
      "Ġbinding": 757,
      "Ġliver": 758,
      "Ġother": 759,
      "Ġits": 760,
      "de": 761,
      "Ġmembran": 762,
      "Ġsystem": 763,
      "Ġmetabol": 764,
      "az": 765,
      "Ġvari": 766,
      "ethyl": 767,
      "xim": 768,
      "Ġinter": 769,
      "ĠW": 770,
      "Ġev": 771,
      "ological": 772,
      "ates": 773,
      "Ġly": 774,
      "Ġmeas": 775,
      "Ġcol": 776,
      "ormal": 777,
      "Ġcan": 778,
      "Ġcomple": 779,
      "lin": 780,
      "sib": 781,
      "Ġsec": 782,
      "ob": 783,
      "roph": 784,
      "gl": 785,
      "ited": 786,
      "ruc": 787,
      "Ġincreased": 788,
      "ond": 789,
      "Ġsim": 790,
      "Ġ8": 791,
      "Ġindic": 792,
      "uld": 793,
      "oci": 794,
      "ization": 795,
      "ile": 796,
      "Ġtreatment": 797,
      "iss": 798,
      "Ġmon": 799,
      "Ġca": 800,
      "port": 801,
      "ath": 802,
      "Ġanal": 803,
      "ces": 804,
      "ution": 805,
      "Ġstim": 806,
      "ck": 807,
      "Ġmore": 808,
      "Ġy": 809,
      "Ġsugges": 810,
      "tent": 811,
      "uman": 812,
      "Ġr": 813,
      "ating": 814,
      "cur": 815,
      "ting": 816,
      "Ġund": 817,
      "ite": 818,
      "ery": 819,
      "form": 820,
      "Ġop": 821,
      "ram": 822,
      "Ġincrease": 823,
      "tained": 824,
      "dy": 825,
      "Ġfol": 826,
      "Ġflu": 827,
      "Ġext": 828,
      "ach": 829,
      "Ġsam": 830,
      "Ġmay": 831,
      "Ġobserved": 832,
      "Ġsynthe": 833,
      "ors": 834,
      "Ġtheir": 835,
      "Ġplas": 836,
      "Ġmin": 837,
      "Ġpur": 838,
      "age": 839,
      "Ġamin": 840,
      "NA": 841,
      "yt": 842,
      "Ġmolec": 843,
      "Ġtim": 844,
      "Ġchanges": 845,
      "ded": 846,
      "lic": 847,
      "Ġinte": 848,
      "ryp": 849,
      "TP": 850,
      "Ġreaction": 851,
      "ĠThis": 852,
      "anism": 853,
      "Ġstudied": 854,
      "ct": 855,
      "ysis": 856,
      "ores": 857,
      "phosph": 858,
      "och": 859,
      "Ġpresence": 860,
      "Ġdetermin": 861,
      "Ġproper": 862,
      "arb": 863,
      "ected": 864,
      "Ġcontrol": 865,
      "ities": 866,
      "Ġcondi": 867,
      "Ġisol": 868,
      "Ġhuman": 869,
      "Ġnormal": 870,
      "Ġonly": 871,
      "Ġmeasure": 872,
      "Ġoxid": 873,
      "ugh": 874,
      "endent": 875,
      "Ġwhen": 876,
      "eptid": 877,
      "Ġaff": 878,
      "ene": 879,
      "als": 880,
      "Ġreg": 881,
      "Ġcat": 882,
      "ĠIt": 883,
      "tics": 884,
      "ĠNAD": 885,
      "Ġma": 886,
      "ix": 887,
      "Ġone": 888,
      "Ġrats": 889,
      "Ġhad": 890,
      "rees": 891,
      "ory": 892,
      "Ġmethod": 893,
      "nal": 894,
      "Ġprepa": 895,
      "Ġstudy": 896,
      "Ġsur": 897,
      "Ġall": 898,
      "itro": 899,
      "Ġcarb": 900,
      "osis": 901,
      "Ġproperties": 902,
      "Ġalpha": 903,
      "rin": 904,
      "Ġconcentrations": 905,
      "tens": 906,
      "Ġoc": 907,
      "aline": 908,
      "Ġplasma": 909,
      "ergic": 910,
      "Ġvalues": 911,
      "Ġspecific": 912,
      "Ġfollow": 913,
      "ared": 914,
      "til": 915,
      "ear": 916,
      "Ġhem": 917,
      "ven": 918,
      "Ġproc": 919,
      "Ġimm": 920,
      "Ġdegrees": 921,
      "Ġstudies": 922,
      "Ġlevels": 923,
      "Ġdes": 924,
      "Ġbi": 925,
      "Ġinto": 926,
      "Ġfun": 927,
      "Ġdifferent": 928,
      "ĠThese": 929,
      "ace": 930,
      "rated": 931,
      "usc": 932,
      "'s": 933,
      "arac": 934,
      "ensi": 935,
      "ulf": 936,
      "Ġexper": 937,
      "Ġcyc": 938,
      "lop": 939,
      "Ġacc": 940,
      "cell": 941,
      "art": 942,
      "Ġsuc": 943,
      "ilar": 944,
      "sor": 945,
      "Ġunder": 946,
      "Ġconditions": 947,
      "actor": 948,
      "der": 949,
      "Ġmg": 950,
      "Ġman": 951,
      "ified": 952,
      "aracter": 953,
      "raph": 954,
      "ici": 955,
      "lyc": 956,
      "Ġcons": 957,
      "hed": 958,
      "Ġserum": 959,
      "Ġro": 960,
      "usion": 961,
      "sible": 962,
      "Ġless": 963,
      "ass": 964,
      "Ġmembrane": 965,
      "ry": 966,
      "Ġqu": 967,
      "Ġgluc": 968,
      "ke": 969,
      "Ġenzymes": 970,
      "Ġmech": 971,
      "Ġdifferen": 972,
      "ays": 973,
      "tig": 974,
      "ov": 975,
      "Ġused": 976,
      "Ġdo": 977,
      "Ġobtained": 978,
      "ade": 979,
      "Ġtiss": 980,
      "Ġwhe": 981,
      "ants": 982,
      "Ġchrom": 983,
      "Ġcaus": 984,
      "tal": 985,
      "Ġcal": 986,
      "Ġcontain": 987,
      "atic": 988,
      "rap": 989,
      "Ġnon": 990,
      "emp": 991,
      "Ġblock": 992,
      "Ġequ": 993,
      "hemical": 994,
      "tivity": 995,
      "yr": 996,
      "Ġrec": 997,
      "Ġintra": 998,
      "Ġphen": 999,
      "Ġproduc": 1000,
      "Ġisolated": 1001,
      "ĠX": 1002,
      "Ġrep": 1003,
      "Ġes": 1004,
      "rent": 1005,
      "dition": 1006,
      "vi": 1007,
      "Ġexc": 1008,
      "Ġinhibition": 1009,
      "ograph": 1010,
      "ked": 1011,
      "Ġtemp": 1012,
      "Ġnucle": 1013,
      "Ġ9": 1014,
      "inal": 1015,
      "Ġcom": 1016,
      "Ġcharacter": 1017,
      "ble": 1018,
      "ulated": 1019,
      "Ġdisc": 1020,
      "Ġoccur": 1021,
      "Ġconst": 1022,
      "000": 1023,
      "ute": 1024,
      "Ġdrugs": 1025,
      "ton": 1026,
      "Ġhig": 1027,
      "Ġrele": 1028,
      "acter": 1029,
      "velop": 1030,
      "ong": 1031,
      "ane": 1032,
      "Ġsome": 1033,
      "Ġ[": 1034,
      "Ġdist": 1035,
      "ole": 1036,
      "ites": 1037,
      "Ġmechanism": 1038,
      "ytic": 1039,
      "ake": 1040,
      "Ġsimilar": 1041,
      "Ġtes": 1042,
      "Ġshowed": 1043,
      "Ġexperim": 1044,
      "Ġcyt": 1045,
      "Ġthose": 1046,
      "ygen": 1047,
      "Ġabout": 1048,
      "Ġcomplex": 1049,
      "Ġtempera": 1050,
      "estig": 1051,
      "les": 1052,
      "Ġins": 1053,
      "orph": 1054,
      "Ġgrow": 1055,
      "Ġadmin": 1056,
      "Ġspect": 1057,
      "ĠU": 1058,
      "ard": 1059,
      "Ġprop": 1060,
      "iod": 1061,
      "oun": 1062,
      "chol": 1063,
      "Ġinhibited": 1064,
      "Ġpoten": 1065,
      "retion": 1066,
      "Ġmar": 1067,
      "Ġpreparation": 1068,
      "enz": 1069,
      "pid": 1070,
      "ty": 1071,
      "Ġtyp": 1072,
      "rel": 1073,
      "etyl": 1074,
      "tase": 1075,
      "ither": 1076,
      "Ġfunction": 1077,
      "Ġreceptor": 1078,
      "ection": 1079,
      "Ġsame": 1080,
      "--": 1081,
      "olol": 1082,
      "sin": 1083,
      "50": 1084,
      "Ġcould": 1085,
      "Ġ+": 1086,
      "Ġinvestig": 1087,
      "Ġout": 1088,
      "tory": 1089,
      "hydrox": 1090,
      "Ġdid": 1091,
      "ody": 1092,
      "ever": 1093,
      "Ġran": 1094,
      "reated": 1095,
      "Ġgra": 1096,
      "Ġactive": 1097,
      "ĠII": 1098,
      "ero": 1099,
      "ependent": 1100,
      "Ġur": 1101,
      "ments": 1102,
      "oglo": 1103,
      "ses": 1104,
      "In": 1105,
      "ult": 1106,
      "Ġdevelop": 1107,
      "ectively": 1108,
      "Ġmusc": 1109,
      "ocy": 1110,
      "odium": 1111,
      "rome": 1112,
      "Ġexp": 1113,
      "Ġlip": 1114,
      "Ġarter": 1115,
      "Ġsubstrate": 1116,
      "Ġpress": 1117,
      "Ġpurified": 1118,
      "uro": 1119,
      "Ġresponse": 1120,
      "Ġalk": 1121,
      "Ġaction": 1122,
      "Ġcul": 1123,
      "erm": 1124,
      "Ġpresent": 1125,
      "atu": 1126,
      "Ġsm": 1127,
      "gan": 1128,
      "idine": 1129,
      "Ġaddition": 1130,
      "sed": 1131,
      "ylase": 1132,
      "Ġamino": 1133,
      "Ġmolecular": 1134,
      "Ġrem": 1135,
      "Ġdise": 1136,
      "Ġtime": 1137,
      "Ġchromat": 1138,
      "fer": 1139,
      "MP": 1140,
      "hyd": 1141,
      "ata": 1142,
      "Ġgre": 1143,
      "Ġgroups": 1144,
      "Ġcalc": 1145,
      "ĠV": 1146,
      "Ġbas": 1147,
      "Ġoptim": 1148,
      "pt": 1149,
      "Ġreduced": 1150,
      "Ġthree": 1151,
      "Ġmicros": 1152,
      "linical": 1153,
      "ption": 1154,
      "ability": 1155,
      "Ġhigher": 1156,
      "oxy": 1157,
      "tical": 1158,
      "Ġimmun": 1159,
      "ail": 1160,
      "Ġste": 1161,
      "Ġhyper": 1162,
      "utam": 1163,
      "Ġvir": 1164,
      "Ġadren": 1165,
      "Ġpartic": 1166,
      "Ġphys": 1167,
      "Ġtemperature": 1168,
      "its": 1169,
      "Ġdecreased": 1170,
      "Ġassoci": 1171,
      "io": 1172,
      "Ġdetermined": 1173,
      "Ġwell": 1174,
      "Ġproduced": 1175,
      "Ġstruc": 1176,
      "Ġresid": 1177,
      "Ġactivities": 1178,
      "lor": 1179,
      "Ġbrain": 1180,
      "Ġend": 1181,
      "amide": 1182,
      "Ġinflu": 1183,
      "old": 1184,
      "Ġgel": 1185,
      "ractions": 1186,
      "/-": 1187,
      "ĠATP": 1188,
      "Ġnew": 1189,
      "Ġformation": 1190,
      "Ġsupp": 1191,
      "Ġsignificantly": 1192,
      "Ġpressure": 1193,
      "Ġthere": 1194,
      "Ġmod": 1195,
      "Ġfactor": 1196,
      "Ġanim": 1197,
      "Ġvarious": 1198,
      "ora": 1199,
      "Ġweight": 1200,
      "vid": 1201,
      "owever": 1202,
      "Ġoxygen": 1203,
      "Ġuse": 1204,
      "oglobin": 1205,
      "umb": 1206,
      "Ġusing": 1207,
      "(-": 1208,
      "iden": 1209,
      "ental": 1210,
      "omal": 1211,
      "Ġmice": 1212,
      "hydrogen": 1213,
      "10": 1214,
      "Ġsodium": 1215,
      "Ġcompared": 1216,
      "que": 1217,
      "activ": 1218,
      "cellular": 1219,
      "ions": 1220,
      "'-": 1221,
      "Ġcatal": 1222,
      "edi": 1223,
      "uth": 1224,
      "Ġincreas": 1225,
      "Ġaden": 1226,
      "Ġdue": 1227,
      "Ġmeasured": 1228,
      "inase": 1229,
      "Ġcap": 1230,
      "Ġinj": 1231,
      "istration": 1232,
      "Ġappro": 1233,
      "Ġty": 1234,
      "esthe": 1235,
      "ins": 1236,
      "Ġmuc": 1237,
      "Ġhist": 1238,
      "Ġcardi": 1239,
      "sy": 1240,
      "Ġchange": 1241,
      "Ġfraction": 1242,
      "Ġcases": 1243,
      "atter": 1244,
      "uble": 1245,
      "ĠmM": 1246,
      "Ġchromatograph": 1247,
      "Ġmedium": 1248,
      "Ġtissue": 1249,
      "ons": 1250,
      "Ġeither": 1251,
      "ification": 1252,
      "rote": 1253,
      "rim": 1254,
      "Ġdose": 1255,
      "Ġmal": 1256,
      "anti": 1257,
      "agn": 1258,
      "Ġrespectively": 1259,
      "Ġ-": 1260,
      "tures": 1261,
      "ise": 1262,
      "Ġsyn": 1263,
      "omes": 1264,
      "Ġdemon": 1265,
      "Ġpoly": 1266,
      "kg": 1267,
      "Ġder": 1268,
      "Ġdemonst": 1269,
      "Ġvitro": 1270,
      "ously": 1271,
      "Ġinvol": 1272,
      "Ġmaxim": 1273,
      "Ġgreater": 1274,
      "mph": 1275,
      "uff": 1276,
      "erase": 1277,
      "Ġsal": 1278,
      "ters": 1279,
      "ple": 1280,
      "Ġrapid": 1281,
      "qui": 1282,
      "Ġgast": 1283,
      "Ġstrain": 1284,
      "fore": 1285,
      "Ġlar": 1286,
      "Ġcompound": 1287,
      "Ġtryp": 1288,
      "Ġsensi": 1289,
      "Ġdecrease": 1290,
      "Ġclinical": 1291,
      "Ġdesc": 1292,
      "ced": 1293,
      "Ġcent": 1294,
      "ately": 1295,
      "irst": 1296,
      "Ġinduced": 1297,
      "Ġ20": 1298,
      "Ġkine": 1299,
      "Ġbacter": 1300,
      "Ġhydroly": 1301,
      "Ġadministration": 1302,
      "ulin": 1303,
      "Ġloc": 1304,
      "Ġdata": 1305,
      "Ġlab": 1306,
      "Ġmuscle": 1307,
      "Ġtherap": 1308,
      "phosphate": 1309,
      "Ġmost": 1310,
      "Ġgu": 1311,
      "Ġtransport": 1312,
      "Ġsynthesis": 1313,
      "zed": 1314,
      "Ġfollowing": 1315,
      "titu": 1316,
      "Ġdel": 1317,
      "idase": 1318,
      "Ġseve": 1319,
      "ylate": 1320,
      "Ġdehydrogen": 1321,
      "Ġsmall": 1322,
      "trans": 1323,
      "tif": 1324,
      "Ġdos": 1325,
      "zyme": 1326,
      "CO": 1327,
      "dependent": 1328,
      "Ġdef": 1329,
      "rosine": 1330,
      "Ġiden": 1331,
      "Ġrequi": 1332,
      "Ġwhile": 1333,
      "Ġshown": 1334,
      "ĠNADP": 1335,
      "Ġgrowth": 1336,
      "Ġ+/-": 1337,
      "Ġ12": 1338,
      "Ġdays": 1339,
      "ids": 1340,
      "Ġacids": 1341,
      "Ġglucose": 1342,
      "Ġdiscus": 1343,
      "Ġtotal": 1344,
      "ingle": 1345,
      "Ġphosphate": 1346,
      "Ġgene": 1347,
      "agon": 1348,
      "rial": 1349,
      ")-": 1350,
      "II": 1351,
      "osed": 1352,
      "Ġdete": 1353,
      "take": 1354,
      "Ġ\"": 1355,
      "Ġdepend": 1356,
      "Eff": 1357,
      "ew": 1358,
      "Ġfirst": 1359,
      "Ġmain": 1360,
      "ĠCa": 1361,
      "Ġvirus": 1362,
      "Ġhom": 1363,
      "adren": 1364,
      "Ġhydrox": 1365,
      "Ġprocess": 1366,
      "Ġantib": 1367,
      "Ġ=": 1368,
      "inity": 1369,
      "Ġover": 1370,
      "amma": 1371,
      "pro": 1372,
      "Ġsulf": 1373,
      "Ġappa": 1374,
      "Ġuptake": 1375,
      "ged": 1376,
      "Ġsingle": 1377,
      "Ġdiss": 1378,
      "ears": 1379,
      "Ġpath": 1380,
      "rates": 1381,
      "Ġfib": 1382,
      "occ": 1383,
      "Ġmean": 1384,
      "Ġperiod": 1385,
      "echn": 1386,
      "Ġrelease": 1387,
      "rect": 1388,
      "Ġcl": 1389,
      "Ġreduction": 1390,
      "Ġem": 1391,
      "Ġstimulation": 1392,
      "Ġdisease": 1393,
      "ency": 1394,
      "Ġmy": 1395,
      "otid": 1396,
      "ough": 1397,
      "ual": 1398,
      "pec": 1399,
      "Ġtest": 1400,
      "Ġvalue": 1401,
      "Ġreduc": 1402,
      "irc": 1403,
      "Ġelectroph": 1404,
      "Ġeach": 1405,
      "Ġglyc": 1406,
      "Ġbeh": 1407,
      "Ġj": 1408,
      "Ġheart": 1409,
      "Ġanimals": 1410,
      "tero": 1411,
      "Ġsep": 1412,
      "Ġneuro": 1413,
      "induced": 1414,
      "Ġsc": 1415,
      "Ġcorrel": 1416,
      "atory": 1417,
      "Ġ30": 1418,
      "Ġamoun": 1419,
      "eta": 1420,
      "Ġsolution": 1421,
      "atase": 1422,
      "Ġdehydrogenase": 1423,
      "Ġdiscussed": 1424,
      "Ġtechn": 1425,
      "ylation": 1426,
      "chan": 1427,
      "Ġchromatography": 1428,
      "onic": 1429,
      "Ġant": 1430,
      "urther": 1431,
      "epam": 1432,
      "Ġnumb": 1433,
      "ines": 1434,
      "Ġcompon": 1435,
      "Ġdescrib": 1436,
      "arm": 1437,
      "ta": 1438,
      "Ġspecies": 1439,
      "Ġsubj": 1440,
      "Cl": 1441,
      "ft": 1442,
      "alpha": 1443,
      "ides": 1444,
      "Ġcaused": 1445,
      "ital": 1446,
      "eryth": 1447,
      "ochrome": 1448,
      "Ġlower": 1449,
      "Ġir": 1450,
      "ardi": 1451,
      "Ġincub": 1452,
      "itis": 1453,
      "Ġ19": 1454,
      "sorption": 1455,
      "li": 1456,
      "Ġcur": 1457,
      "Ġdog": 1458,
      "Ġfree": 1459,
      "Ġmetabolism": 1460,
      "erv": 1461,
      "Ġgiv": 1462,
      "Ġextrac": 1463,
      "iel": 1464,
      "Ġsuch": 1465,
      "Ġconstant": 1466,
      "rough": 1467,
      "ferase": 1468,
      "mit": 1469,
      "ont": 1470,
      "ered": 1471,
      "Ġapparent": 1472,
      "dom": 1473,
      "itu": 1474,
      "ĠAt": 1475,
      "ould": 1476,
      "Ġpotential": 1477,
      "Ġbehav": 1478,
      "rine": 1479,
      "ication": 1480,
      "Ġvol": 1481,
      "Ġsuggest": 1482,
      "val": 1483,
      "Ġrange": 1484,
      "oresc": 1485,
      "asc": 1486,
      "Ġinhibitor": 1487,
      "Ġiso": 1488,
      "Ġlymph": 1489,
      "Ġwater": 1490,
      "Ġwhereas": 1491,
      "Ġfat": 1492,
      "ances": 1493,
      "Ġinactiv": 1494,
      "ished": 1495,
      "Ġmix": 1496,
      "ĠNa": 1497,
      "ology": 1498,
      "rad": 1499,
      "Ġpossible": 1500,
      "tered": 1501,
      "ature": 1502,
      "Ġtype": 1503,
      "olytic": 1504,
      "Ġprol": 1505,
      "Ġ50": 1506,
      "Ġproteins": 1507,
      "Ġanalysis": 1508,
      "Ġassociated": 1509,
      "ira": 1510,
      "lase": 1511,
      "methyl": 1512,
      "aris": 1513,
      "idence": 1514,
      "Ġchol": 1515,
      "fold": 1516,
      "Ġhorm": 1517,
      "ĠDNA": 1518,
      "formation": 1519,
      "bb": 1520,
      "tially": 1521,
      "Ġ15": 1522,
      "henyl": 1523,
      "ex": 1524,
      "Ġmit": 1525,
      "led": 1526,
      "Ġu": 1527,
      "Ġsel": 1528,
      "ococc": 1529,
      "ximately": 1530,
      "Ġassay": 1531,
      ")].": 1532,
      "mol": 1533,
      "cop": 1534,
      "Ġflow": 1535,
      "Ġstate": 1536,
      "odif": 1537,
      "Ġtechni": 1538,
      "Ġradi": 1539,
      "Ġexamin": 1540,
      "Ġrole": 1541,
      "arly": 1542,
      "ild": 1543,
      "Ġorgan": 1544,
      "Ġsecond": 1545,
      "Ġaffinity": 1546,
      "Ġhal": 1547,
      "Ġwithout": 1548,
      "Ġeryth": 1549,
      "Ġvery": 1550,
      "ribution": 1551,
      "Ġsepa": 1552,
      "ule": 1553,
      "Ġcase": 1554,
      "Ġrabb": 1555,
      "Ġmarked": 1556,
      "ior": 1557,
      "ks": 1558,
      "Ġpul": 1559,
      "opamine": 1560,
      "ind": 1561,
      "Ġinvestigated": 1562,
      "lyce": 1563,
      "Ġculture": 1564,
      "Ġupon": 1565,
      "amic": 1566,
      "icient": 1567,
      "Ġbuff": 1568,
      "rocy": 1569,
      "anine": 1570,
      "Ġtyrosine": 1571,
      "Ġnumber": 1572,
      "Ġpe": 1573,
      "Ġagain": 1574,
      "Ġcombin": 1575,
      "oid": 1576,
      "eren": 1577,
      "sych": 1578,
      "me": 1579,
      "po": 1580,
      "idne": 1581,
      "Ġoxidase": 1582,
      "Ġbec": 1583,
      "mic": 1584,
      "Ġcere": 1585,
      "Ġ14": 1586,
      "Ġsecretion": 1587,
      "ochond": 1588,
      "Ġso": 1589,
      "Ġcontent": 1590,
      "Ġven": 1591,
      "oprote": 1592,
      "Ġabs": 1593,
      "Ġlys": 1594,
      "gluc": 1595,
      "vers": 1596,
      "Ġinteraction": 1597,
      "ocytes": 1598,
      "Ġcirc": 1599,
      "Ġmut": 1600,
      "eding": 1601,
      "Ġref": 1602,
      "Ġthrough": 1603,
      "imin": 1604,
      "ably": 1605,
      "ically": 1606,
      "Ġneut": 1607,
      "Ġrelative": 1608,
      "Ġdescribed": 1609,
      "Ġchain": 1610,
      "Ġstimul": 1611,
      "Ġdoses": 1612,
      "Ġhis": 1613,
      "resp": 1614,
      "Ġsite": 1615,
      "Ġini": 1616,
      "osine": 1617,
      "Ġrati": 1618,
      "Ġkidne": 1619,
      "ĠKm": 1620,
      "Ġacetyl": 1621,
      "Ġcontaining": 1622,
      "Ġstructure": 1623,
      "Ġrenal": 1624,
      "Ġproton": 1625,
      "ĠCO": 1626,
      "Ġfluoresc": 1627,
      "Ġapproximately": 1628,
      "14": 1629,
      "cin": 1630,
      "erc": 1631,
      "ove": 1632,
      "Ġproduction": 1633,
      "oac": 1634,
      "Ġsites": 1635,
      "hol": 1636,
      "Ġphosphor": 1637,
      "Ġcoli": 1638,
      "oresis": 1639,
      "tensive": 1640,
      "Ġoptimum": 1641,
      "iratory": 1642,
      "Ġpost": 1643,
      "Ġlong": 1644,
      "Ġimport": 1645,
      "ented": 1646,
      "Ġep": 1647,
      "Ġgamma": 1648,
      "ĠMg": 1649,
      "Ġelectron": 1650,
      "Ġindicate": 1651,
      "uthor": 1652,
      "Ġlarge": 1653,
      "Ġagents": 1654,
      "Ġmicro": 1655,
      "Ġderiv": 1656,
      "Ġgiven": 1657,
      "rag": 1658,
      "ilib": 1659,
      "ĠAn": 1660,
      "Ġresidues": 1661,
      "iological": 1662,
      "Ġfour": 1663,
      "Ġchlor": 1664,
      "Ġmodif": 1665,
      "ĠThere": 1666,
      "Ġalkaline": 1667,
      "Ġcalcium": 1668,
      "DP": 1669,
      "Ġfil": 1670,
      "ung": 1671,
      "Ġresist": 1672,
      "Ġforms": 1673,
      "ression": 1674,
      "Ġrelated": 1675,
      "Ġpreparations": 1676,
      "Ġarterial": 1677,
      "Ġcompounds": 1678,
      "oma": 1679,
      "Ġmembranes": 1680,
      "Ġmodel": 1681,
      "Ġgastric": 1682,
      "cip": 1683,
      "ara": 1684,
      "mal": 1685,
      "umin": 1686,
      "Ġwithin": 1687,
      "own": 1688,
      "luded": 1689,
      "erox": 1690,
      "itive": 1691,
      "Ġcle": 1692,
      "Ġprob": 1693,
      "Ġtherapy": 1694,
      "beta": 1695,
      "jor": 1696,
      "neum": 1697,
      "Ġions": 1698,
      "Ġtreated": 1699,
      "Ġaccum": 1700,
      "orted": 1701,
      "Ġantagon": 1702,
      "Ġmitochond": 1703,
      "cted": 1704,
      "utions": 1705,
      "anol": 1706,
      "omy": 1707,
      "rance": 1708,
      "ochemical": 1709,
      "Ġactivation": 1710,
      "ood": 1711,
      "Ġpyr": 1712,
      "Ġprevi": 1713,
      "tera": 1714,
      "Ġsym": 1715,
      "ules": 1716,
      "Ġstron": 1717,
      "Ġele": 1718,
      "Ġtox": 1719,
      "ust": 1720,
      "Ġsurf": 1721,
      "Ġcharacteris": 1722,
      "Ġcardiac": 1723,
      "ield": 1724,
      "ie": 1725,
      "Ġmajor": 1726,
      "12": 1727,
      "Ġproced": 1728,
      "Ġdissoci": 1729,
      "Ġagainst": 1730,
      "rose": 1731,
      "Ġglut": 1732,
      "Ġresponses": 1733,
      "ascular": 1734,
      "ful": 1735,
      "omet": 1736,
      "Ġhomogen": 1737,
      "hip": 1738,
      "medi": 1739,
      "ranolol": 1740,
      "ize": 1741,
      "rium": 1742,
      "ivo": 1743,
      "ergy": 1744,
      "armac": 1745,
      "Pro": 1746,
      "requ": 1747,
      "ish": 1748,
      "eti": 1749,
      "ures": 1750,
      "Ġinfluence": 1751,
      "Ġlact": 1752,
      "ĠHowever": 1753,
      "Ġcytochrome": 1754,
      "ok": 1755,
      "Ġslow": 1756,
      "Ġ100": 1757,
      "Ġcontra": 1758,
      "Ġremain": 1759,
      "Ġpeptid": 1760,
      "alu": 1761,
      "Ġfer": 1762,
      "Ġevalu": 1763,
      "gn": 1764,
      "Ġany": 1765,
      "ick": 1766,
      "uron": 1767,
      "Ġbefore": 1768,
      "Ġvivo": 1769,
      "Ġexperiments": 1770,
      "Ġdemonstrated": 1771,
      "Ġtri": 1772,
      "Ġmorph": 1773,
      "Ġdevelopment": 1774,
      "Ġseveral": 1775,
      "row": 1776,
      "Ġfl": 1777,
      "ack": 1778,
      "oplas": 1779,
      "hydroxy": 1780,
      "Ġcereb": 1781,
      "Ġfinding": 1782,
      "Ġnm": 1783,
      "tically": 1784,
      "ationship": 1785,
      "Ġdifference": 1786,
      "Ġurine": 1787,
      "Ġneutral": 1788,
      "flu": 1789,
      "ryl": 1790,
      "onucle": 1791,
      "Ġdirect": 1792,
      "though": 1793,
      "Ġperform": 1794,
      "arison": 1795,
      "Ġpig": 1796,
      "etal": 1797,
      "tives": 1798,
      "Ġrates": 1799,
      "Ġpart": 1800,
      "uv": 1801,
      "Ġana": 1802,
      "Ġacute": 1803,
      "Ġbeing": 1804,
      "ĠAs": 1805,
      "very": 1806,
      "ived": 1807,
      "olip": 1808,
      "Ġequilib": 1809,
      "Ġerythrocy": 1810,
      "Ġage": 1811,
      "Ġchemical": 1812,
      "Ġcarri": 1813,
      "Ġantigen": 1814,
      "Ġkidney": 1815,
      "Ġtransl": 1816,
      "ross": 1817,
      "tidine": 1818,
      "Ġdoes": 1819,
      "Ġelectrophoresis": 1820,
      "Ġstrong": 1821,
      "treated": 1822,
      "Ġchron": 1823,
      "amino": 1824,
      "Ġevidence": 1825,
      "Ġest": 1826,
      "Ġtr": 1827,
      "Ġsus": 1828,
      "Ġenh": 1829,
      "Ġhistamine": 1830,
      "-(": 1831,
      "Ġbound": 1832,
      "Ġconsis": 1833,
      "izing": 1834,
      "Ġperf": 1835,
      "eptidase": 1836,
      "eu": 1837,
      "Ġthey": 1838,
      "Ġhemoglobin": 1839,
      "ement": 1840,
      "Ġcarbox": 1841,
      "Ġquanti": 1842,
      "ĠNADPH": 1843,
      "gth": 1844,
      "Ġfractions": 1845,
      "Ġcomplete": 1846,
      "Ġtimes": 1847,
      "Ġhydrolysis": 1848,
      "EC": 1849,
      "Ġure": 1850,
      "ice": 1851,
      "elect": 1852,
      "Ġsubun": 1853,
      "Ġol": 1854,
      "alact": 1855,
      "Ġasp": 1856,
      "Ġmade": 1857,
      "Ġhour": 1858,
      "char": 1859,
      "Ġmetabolic": 1860,
      "Ġsurg": 1861,
      "Ġreceptors": 1862,
      "author": 1863,
      "Ġsl": 1864,
      "Ġdopamine": 1865,
      "oxin": 1866,
      "Ġlead": 1867,
      "Ġrespiratory": 1868,
      "Ġdifferences": 1869,
      "Ġexperimental": 1870,
      "ulph": 1871,
      "omer": 1872,
      "Ġlight": 1873,
      "other": 1874,
      "ĠAl": 1875,
      "Ġexhib": 1876,
      "Ġidentif": 1877,
      "onate": 1878,
      "Ġreve": 1879,
      "monary": 1880,
      "enic": 1881,
      "Ġeffective": 1882,
      "Ġreactions": 1883,
      "ĠOn": 1884,
      "eph": 1885,
      "ynthe": 1886,
      "Ġtet": 1887,
      "Ġred": 1888,
      "Ġammon": 1889,
      "Ġpeak": 1890,
      "Ġratio": 1891,
      "ling": 1892,
      "Ġaut": 1893,
      "Ġpneum": 1894,
      "Effect": 1895,
      "Ġrabbit": 1896,
      "namic": 1897,
      "osp": 1898,
      "ord": 1899,
      "Ġeth": 1900,
      "aneous": 1901,
      "Ġinsulin": 1902,
      "pecific": 1903,
      "ian": 1904,
      "Ġmu": 1905,
      "Ġlung": 1906,
      "ĠWhen": 1907,
      "Ġdistribution": 1908,
      "Ġacet": 1909,
      "Ġappe": 1910,
      "Ġpatient": 1911,
      "Ġlocal": 1912,
      "ving": 1913,
      "Ġprim": 1914,
      "olysis": 1915,
      "Ġatt": 1916,
      "Ġmaximum": 1917,
      "Ġstrains": 1918,
      "Ġfluorescence": 1919,
      "Ġoxidation": 1920,
      "sc": 1921,
      "toph": 1922,
      "ward": 1923,
      "ĠpK": 1924,
      "osition": 1925,
      "ety": 1926,
      "Ġtransfer": 1927,
      "con": 1928,
      "otic": 1929,
      "ince": 1930,
      "enzyme": 1931,
      "osa": 1932,
      "Ġcyclic": 1933,
      "ml": 1934,
      "sia": 1935,
      "Ġrever": 1936,
      "Ġchlo": 1937,
      "rations": 1938,
      "Ġsuper": 1939,
      "ages": 1940,
      "ves": 1941,
      "Ġmug": 1942,
      "Ġexamined": 1943,
      "Ġbuffer": 1944,
      "Ġrest": 1945,
      "ator": 1946,
      "Ġphase": 1947,
      "Ġelectro": 1948,
      "Ġcoll": 1949,
      "Ġsuggested": 1950,
      "Ġincreasing": 1951,
      "Ġhormone": 1952,
      "Ġorder": 1953,
      "Ġsolutions": 1954,
      "Ġsubstrates": 1955,
      "Ġincreases": 1956,
      "Ġfrequ": 1957,
      "Ġ25": 1958,
      "Ġdependent": 1959,
      "Ġexcretion": 1960,
      "Ġwor": 1961,
      "atal": 1962,
      "Ġsubjects": 1963,
      "line": 1964,
      "vent": 1965,
      "Ġanesthe": 1966,
      "Ġparam": 1967,
      "cohol": 1968,
      "Ġestim": 1969,
      "Ġfactors": 1970,
      "ria": 1971,
      "phrine": 1972,
      "emia": 1973,
      "ples": 1974,
      "Ġpositive": 1975,
      "Ġrib": 1976,
      "ulose": 1977,
      "Ġabsorption": 1978,
      "atives": 1979,
      "tin": 1980,
      "Ġther": 1981,
      "Ġmethyl": 1982,
      "Ġcyclase": 1983,
      "attern": 1984,
      "Ġgeneral": 1985,
      "change": 1986,
      "Ġsk": 1987,
      "ists": 1988,
      "glutam": 1989,
      "Ġfatty": 1990,
      "ĠAfter": 1991,
      "odies": 1992,
      "Ġtub": 1993,
      "raz": 1994,
      "atechol": 1995,
      "terone": 1996,
      "Ġrelationship": 1997,
      "Ġsurface": 1998,
      "Ġinhibitors": 1999,
      "Ġvolum": 2000,
      "itrate": 2001,
      "Ġsperm": 2002,
      "ouse": 2003,
      "oxide": 2004,
      "Ġleast": 2005,
      "Ġwee": 2006,
      "Ġincubation": 2007,
      "gre": 2008,
      "use": 2009,
      "Ġ13": 2010,
      "Ġdiagn": 2011,
      "Ġacidosis": 2012,
      "ĠNo": 2013,
      "oA": 2014,
      "Ġpattern": 2015,
      "alth": 2016,
      "ertain": 2017,
      "Ġenergy": 2018,
      "An": 2019,
      "Ġfurther": 2020,
      "anc": 2021,
      "othe": 2022,
      "Ġinhibitory": 2023,
      "Ġfollowed": 2024,
      "Ġtested": 2025,
      "Ġmuch": 2026,
      "ĠAc": 2027,
      "ival": 2028,
      "Ġmetabolites": 2029,
      "Ġi": 2030,
      "essen": 2031,
      "renaline": 2032,
      "Ġkinase": 2033,
      "Ġsynthetase": 2034,
      "uvate": 2035,
      "100": 2036,
      "Ġintact": 2037,
      "Ġseem": 2038,
      "Ġpolym": 2039,
      "ovine": 2040,
      "Ġdogs": 2041,
      "Ġinactivation": 2042,
      "Ġfindings": 2043,
      "Ġconf": 2044,
      "Ġcontrast": 2045,
      "gin": 2046,
      "int": 2047,
      "ently": 2048,
      "urn": 2049,
      "Ġcarbon": 2050,
      "eff": 2051,
      "inu": 2052,
      "inary": 2053,
      "itation": 2054,
      "Ġhepa": 2055,
      "Ġresult": 2056,
      "adrenergic": 2057,
      "+,": 2058,
      "Ġnitro": 2059,
      "Ġmicrosomal": 2060,
      "Ġabsence": 2061,
      "Ġslight": 2062,
      "aled": 2063,
      "acetyl": 2064,
      "Ġconformation": 2065,
      "lass": 2066,
      "Ġcorresp": 2067,
      "azine": 2068,
      "Ġreported": 2069,
      "Ġkinetics": 2070,
      "Ġinitial": 2071,
      "Ġ24": 2072,
      "Ġhypox": 2073,
      "Ġadrenergic": 2074,
      "otide": 2075,
      "20": 2076,
      "Ġhowever": 2077,
      "Ġintest": 2078,
      "tension": 2079,
      "sorb": 2080,
      "Ġblocking": 2081,
      "Ġchronic": 2082,
      "Ġoccurred": 2083,
      "ae": 2084,
      "Ġtechnique": 2085,
      "Ġpsych": 2086,
      "Ġbenz": 2087,
      "dies": 2088,
      "lock": 2089,
      "19": 2090,
      "ortion": 2091,
      "Ġren": 2092,
      "Ġlim": 2093,
      "ĠCh": 2094,
      "Ġinclu": 2095,
      "ĠSt": 2096,
      "ans": 2097,
      "sequ": 2098,
      "arbox": 2099,
      "Ġsensitive": 2100,
      "Ġdissociation": 2101,
      "ĠmuM": 2102,
      "Ġparame": 2103,
      "rh": 2104,
      "ud": 2105,
      "Ġessen": 2106,
      "Ġter": 2107,
      "ycin": 2108,
      "tudies": 2109,
      "ĠWith": 2110,
      "Ġequilibrium": 2111,
      "bic": 2112,
      "rum": 2113,
      "Ġden": 2114,
      "acchar": 2115,
      "Ġalcohol": 2116,
      "Ġindicated": 2117,
      "Ġfluid": 2118,
      "Ġtissues": 2119,
      "ms": 2120,
      "ones": 2121,
      "Ġobserv": 2122,
      "Ġmethods": 2123,
      "Ġgradi": 2124,
      "Ġelev": 2125,
      "nown": 2126,
      "Ġmouse": 2127,
      "otass": 2128,
      "Ġvi": 2129,
      "opera": 2130,
      "Ġphot": 2131,
      "Ġpropranolol": 2132,
      "Ġinjection": 2133,
      "Ġguan": 2134,
      "Ġformed": 2135,
      "Ġintracellular": 2136,
      "Ġdependence": 2137,
      "Ġpathw": 2138,
      "otassium": 2139,
      "15": 2140,
      "east": 2141,
      "Ġappears": 2142,
      "ressed": 2143,
      "Ġpulmonary": 2144,
      "Ġpreviously": 2145,
      "ati": 2146,
      "pH": 2147,
      "Ġfe": 2148,
      "ptom": 2149,
      ".,": 2150,
      "stitu": 2151,
      "alanine": 2152,
      "ceeding": 2153,
      "Ġshif": 2154,
      "Ġshould": 2155,
      "ogenic": 2156,
      "aturation": 2157,
      "Ġinvolved": 2158,
      "cent": 2159,
      "Ġlig": 2160,
      "Ġpharmac": 2161,
      "Ġglutam": 2162,
      "Ġrequired": 2163,
      "fl": 2164,
      "Ġlos": 2165,
      "Ġline": 2166,
      "Ġgen": 2167,
      "otrop": 2168,
      "Ġconcluded": 2169,
      "glut": 2170,
      "ĠJ": 2171,
      "ased": 2172,
      "Ġreco": 2173,
      "Ġplace": 2174,
      "Ch": 2175,
      "tle": 2176,
      "Ġdu": 2177,
      "olar": 2178,
      "Ġnec": 2179,
      "Ġnative": 2180,
      "Ġdiet": 2181,
      "osphate": 2182,
      "Ġsamples": 2183,
      "yzed": 2184,
      "Ġtit": 2185,
      "loc": 2186,
      "ĠWe": 2187,
      "Ġstimulated": 2188,
      "Ġdetected": 2189,
      "ily": 2190,
      "Ġcatechol": 2191,
      "Ġbel": 2192,
      "Ġbovine": 2193,
      "ĠAMP": 2194,
      "Ġhealth": 2195,
      "Ġ40": 2196,
      "Ġaffected": 2197,
      "Ġaccumulation": 2198,
      "tration": 2199,
      "Ġdim": 2200,
      "inea": 2201,
      "Ġ18": 2202,
      "Ġcapac": 2203,
      "gative": 2204,
      "ning": 2205,
      "pine": 2206,
      "Ġhr": 2207,
      "otrans": 2208,
      "Ġstri": 2209,
      "tural": 2210,
      "illin": 2211,
      "Ġspecificity": 2212,
      "Ġkinetic": 2213,
      "etitive": 2214,
      "Ġvolume": 2215,
      "mia": 2216,
      "omen": 2217,
      "ife": 2218,
      "ogenous": 2219,
      "Ġsystems": 2220,
      "Ġanalog": 2221,
      "Ġextra": 2222,
      "Ġconstants": 2223,
      "Ġdeveloped": 2224,
      "Ġamount": 2225,
      "Ġderivatives": 2226,
      "ax": 2227,
      "but": 2228,
      "benz": 2229,
      "lab": 2230,
      "Ġve": 2231,
      "inc": 2232,
      "esic": 2233,
      "iciency": 2234,
      "Ġmechanisms": 2235,
      "Ġreductase": 2236,
      "Ġhours": 2237,
      "bumin": 2238,
      "mun": 2239,
      "Ġult": 2240,
      "Ġprac": 2241,
      "Ġdon": 2242,
      "Ġ11": 2243,
      "ocardi": 2244,
      "Ġhaem": 2245,
      "ĠNADH": 2246,
      "25": 2247,
      "eled": 2248,
      "Ġresulted": 2249,
      "Ġpossib": 2250,
      "Ġurinary": 2251,
      "yro": 2252,
      "Ġav": 2253,
      "Ġcertain": 2254,
      "amines": 2255,
      "Ġcomponents": 2256,
      "Ġresistance": 2257,
      "Ġprobably": 2258,
      "Ġparameters": 2259,
      "Ġx": 2260,
      "ality": 2261,
      "osynthe": 2262,
      "Ġphospholip": 2263,
      "choline": 2264,
      "Ġtryptoph": 2265,
      "Ġimportant": 2266,
      "Ġtrac": 2267,
      "Ġsple": 2268,
      "Ġseen": 2269,
      "Ġdetermination": 2270,
      "Ġbasis": 2271,
      "over": 2272,
      "pre": 2273,
      "Ġvas": 2274,
      "Ġcomparison": 2275,
      "ĠBoth": 2276,
      "Ġhydrogen": 2277,
      "azepam": 2278,
      "Ġtrypsin": 2279,
      "Ġwork": 2280,
      "amm": 2281,
      "Ġchild": 2282,
      "Ġpregn": 2283,
      "Ġphosphatase": 2284,
      "Ġagent": 2285,
      "Ġdegree": 2286,
      "Ġstep": 2287,
      "Ġmale": 2288,
      "Ġday": 2289,
      "Ġmul": 2290,
      "osyl": 2291,
      "osomal": 2292,
      "Ġnor": 2293,
      "Ġproducts": 2294,
      "app": 2295,
      "ring": 2296,
      "rif": 2297,
      "hes": 2298,
      "erve": 2299,
      "illus": 2300,
      "Ġsoluble": 2301,
      "ands": 2302,
      "Ġeven": 2303,
      "Ġsynd": 2304,
      "Ġcomponent": 2305,
      "greg": 2306,
      "tative": 2307,
      "Ġoral": 2308,
      "Ġindi": 2309,
      "esis": 2310,
      "Ġmen": 2311,
      "ateral": 2312,
      "Ġabove": 2313,
      "Ġ60": 2314,
      "Ġcorrelation": 2315,
      "Ġutil": 2316,
      "etic": 2317,
      "Ġearly": 2318,
      "ĠAd": 2319,
      "mong": 2320,
      "Ġperformed": 2321,
      "ceedings": 2322,
      "block": 2323,
      "onding": 2324,
      "radi": 2325,
      "rable": 2326,
      "agen": 2327,
      "Ġprocedure": 2328,
      "ause": 2329,
      "Ġside": 2330,
      "Ġmagn": 2331,
      "Ġfail": 2332,
      "umn": 2333,
      "Ġadded": 2334,
      "Ġintraven": 2335,
      "EA": 2336,
      "tet": 2337,
      "ale": 2338,
      "Ġvesic": 2339,
      "Ġ16": 2340,
      "ophil": 2341,
      "Ġionic": 2342,
      "Ġsulfate": 2343,
      "Ġconsistent": 2344,
      "Ġtum": 2345,
      "Ġpotassium": 2346,
      "Ġheat": 2347,
      "Ġimpro": 2348,
      "Ġmedi": 2349,
      "Ġplate": 2350,
      "Ġdouble": 2351,
      "Ġdelta": 2352,
      "Ġskin": 2353,
      "ave": 2354,
      "Ġif": 2355,
      "Ġml": 2356,
      "ulate": 2357,
      "Ġexpl": 2358,
      "ichia": 2359,
      "dehyd": 2360,
      "Ġmolecule": 2361,
      "Ġrevealed": 2362,
      "glutamyl": 2363,
      "Ġtoward": 2364,
      "Ġproduct": 2365,
      "Ġguinea": 2366,
      "transferase": 2367,
      "Ġappeared": 2368,
      "land": 2369,
      "Ġmo": 2370,
      "ull": 2371,
      "Ġphenyl": 2372,
      "Ġlipid": 2373,
      "abl": 2374,
      "ronch": 2375,
      "Ġcolumn": 2376,
      "Ġyears": 2377,
      "Ġhepatic": 2378,
      "Ġcapacity": 2379,
      "Ġspleen": 2380,
      "pat": 2381,
      "Ġincor": 2382,
      "Ġintermedi": 2383,
      "Ġyield": 2384,
      "Ġrapidly": 2385,
      "Ġamounts": 2386,
      "to": 2387,
      "osidase": 2388,
      "osterone": 2389,
      "Ġcharacteristics": 2390,
      "Ġurea": 2391,
      "atis": 2392,
      "ganism": 2393,
      "mine": 2394,
      "hel": 2395,
      "Ġthen": 2396,
      "Ġrece": 2397,
      "adex": 2398,
      "Ġhydroxylase": 2399,
      "terase": 2400,
      "Ġdens": 2401,
      "Ġextent": 2402,
      "herichia": 2403,
      "ension": 2404,
      "Ġyeast": 2405,
      "Ġwhere": 2406,
      "Ġcentral": 2407,
      "Ġloss": 2408,
      "Ġprost": 2409,
      "Ġcontinu": 2410,
      "Ġinfusion": 2411,
      "Ġmorphine": 2412,
      "Ġanaesthe": 2413,
      "Ġstable": 2414,
      "Ġexchange": 2415,
      "ĠRNA": 2416,
      "Ġaccomp": 2417,
      "Ġhalf": 2418,
      "Ġhistidine": 2419,
      "Ġcarried": 2420,
      "tamine": 2421,
      "used": 2422,
      "Ġprog": 2423,
      "ilized": 2424,
      "Ġpurification": 2425,
      "Ġspectra": 2426,
      "odynamic": 2427,
      "Ġmeans": 2428,
      "Ġcerebral": 2429,
      "scherichia": 2430,
      "utes": 2431,
      "ised": 2432,
      "anced": 2433,
      "Ġlit": 2434,
      "Ġorig": 2435,
      "Ġpresented": 2436,
      "Ġtypes": 2437,
      "Ġsensitivity": 2438,
      "like": 2439,
      "Ġcombination": 2440,
      "Ġestabl": 2441,
      "ephadex": 2442,
      "uk": 2443,
      "Ġstability": 2444,
      "ĠAll": 2445,
      "Ġalter": 2446,
      "Ġalone": 2447,
      "Ġmaximal": 2448,
      "Ġmyocardi": 2449,
      "Ġtak": 2450,
      "Ġnerv": 2451,
      "Ġchar": 2452,
      "ĠEscherichia": 2453,
      "Ġsecre": 2454,
      "Ġaffect": 2455,
      "Ġgraft": 2456,
      "electric": 2457,
      "Ġweeks": 2458,
      "coun": 2459,
      "Ġmeasurements": 2460,
      "Ġprepared": 2461,
      "rylamide": 2462,
      "iron": 2463,
      "Ġ37": 2464,
      "Ġregion": 2465,
      "Ġ197": 2466,
      "RNA": 2467,
      "terol": 2468,
      "roton": 2469,
      "Ġbody": 2470,
      "itol": 2471,
      "orn": 2472,
      "osomes": 2473,
      "Ġnerve": 2474,
      "struc": 2475,
      "Ġalbumin": 2476,
      "Ġcommon": 2477,
      "Ġcatalytic": 2478,
      "Ġchloride": 2479,
      "most": 2480,
      "ru": 2481,
      "onary": 2482,
      "Ġdig": 2483,
      "Ġgran": 2484,
      "Ġreson": 2485,
      "taining": 2486,
      "Ġconside": 2487,
      "Ġphysiological": 2488,
      "Ġantibody": 2489,
      "Ġincorpo": 2490,
      "ci": 2491,
      "Ġterm": 2492,
      "icity": 2493,
      "Ġfive": 2494,
      "Ġenzymatic": 2495,
      "Ġblockade": 2496,
      "man": 2497,
      "Ġsix": 2498,
      "ock": 2499,
      "Ġtests": 2500,
      "Ġcultures": 2501,
      "Ġmarkedly": 2502,
      "Ġfiltration": 2503,
      "Ġcorresponding": 2504,
      "TA": 2505,
      "factor": 2506,
      "sol": 2507,
      "Ġinduc": 2508,
      "Ġmate": 2509,
      "urb": 2510,
      "erence": 2511,
      "Ġperox": 2512,
      "oside": 2513,
      "ulatory": 2514,
      "ĠEx": 2515,
      "cept": 2516,
      "uthors": 2517,
      "Ġrenin": 2518,
      "rid": 2519,
      "Ġou": 2520,
      "rog": 2521,
      "Ġvent": 2522,
      "irm": 2523,
      "Ġneu": 2524,
      "Ġnegative": 2525,
      "ologic": 2526,
      "obarb": 2527,
      "Ġbiological": 2528,
      "oval": 2529,
      "Ġoccurs": 2530,
      "Ġmitochondria": 2531,
      "Ġidentified": 2532,
      "istered": 2533,
      "Ġthi": 2534,
      "Ġperip": 2535,
      "Ġsequ": 2536,
      "Ġalkal": 2537,
      "Ġsevere": 2538,
      "Ġvesicles": 2539,
      "ient": 2540,
      "Ġauthors": 2541,
      "Ġinduction": 2542,
      "urse": 2543,
      "Ġknown": 2544,
      "plant": 2545,
      "Ġconsid": 2546,
      "ĠUn": 2547,
      "Ġadenosine": 2548,
      "Ġsynap": 2549,
      "Ġsusp": 2550,
      "Ac": 2551,
      "ATP": 2552,
      "arance": 2553,
      "Ġsed": 2554,
      "Ġdy": 2555,
      "icot": 2556,
      "acrylamide": 2557,
      "Ġprovid": 2558,
      "Ġappear": 2559,
      "Ġindicating": 2560,
      "%)": 2561,
      "Ġz": 2562,
      "Ġbronch": 2563,
      "Ġfem": 2564,
      "lex": 2565,
      "Ġhy": 2566,
      "Ġgas": 2567,
      "Ġstren": 2568,
      "avin": 2569,
      "ercise": 2570,
      "Ġerythrocytes": 2571,
      "dehyde": 2572,
      "cor": 2573,
      "Ġpent": 2574,
      "Ġbil": 2575,
      "osure": 2576,
      "yste": 2577,
      "Ġhex": 2578,
      "Ġleuk": 2579,
      "Ġhighly": 2580,
      "Ġlactate": 2581,
      "Ġtryptophan": 2582,
      "sing": 2583,
      "specific": 2584,
      "Ġ17": 2585,
      "chlor": 2586,
      "Ġmicrosomes": 2587,
      "Ġidentical": 2588,
      "Ġleads": 2589,
      "Ġestimated": 2590,
      "Ġgradient": 2591,
      "Studies": 2592,
      "phenyl": 2593,
      "sp": 2594,
      "Ġ000": 2595,
      "Ġles": 2596,
      "Ġproble": 2597,
      "Ġalthough": 2598,
      "ques": 2599,
      "agland": 2600,
      "tility": 2601,
      "Ġrequire": 2602,
      "Ġbehavior": 2603,
      "oprotein": 2604,
      "base": 2605,
      "cal": 2606,
      "ancy": 2607,
      "olic": 2608,
      "Ġlatter": 2609,
      "Ġpara": 2610,
      "ressive": 2611,
      "ĠThus": 2612,
      "ocyte": 2613,
      "Ġbacteria": 2614,
      "Ġextracts": 2615,
      "Ġsyndrome": 2616,
      "Ġwould": 2617,
      "rins": 2618,
      "Ġproduce": 2619,
      "queous": 2620,
      "copy": 2621,
      "Ġglutamate": 2622,
      "otropic": 2623,
      "450": 2624,
      "BA": 2625,
      "galact": 2626,
      "vement": 2627,
      "ylic": 2628,
      "aden": 2629,
      "Ġwhole": 2630,
      "Ġinfection": 2631,
      "Ġshows": 2632,
      "Ġdecreas": 2633,
      "Ġaggreg": 2634,
      "Ġmedia": 2635,
      "Ġsimple": 2636,
      "Ġpyruvate": 2637,
      "Ġcompletely": 2638,
      "Ġstrength": 2639,
      "adi": 2640,
      "cess": 2641,
      "put": 2642,
      "rical": 2643,
      "heral": 2644,
      "rob": 2645,
      "Ġthus": 2646,
      "Ġthym": 2647,
      "ĠPh": 2648,
      "Ġcoronary": 2649,
      "Ġassess": 2650,
      "ogenesis": 2651,
      "lication": 2652,
      "arbonate": 2653,
      "Ġsour": 2654,
      "Ġnod": 2655,
      "Ġlin": 2656,
      "iment": 2657,
      "Ġcompara": 2658,
      "Ġrelation": 2659,
      "Ġpartially": 2660,
      "Ġcharacterized": 2661,
      "Ġadministered": 2662,
      "Ġparticles": 2663,
      "Ġincluding": 2664,
      "CoA": 2665,
      "lusion": 2666,
      "prop": 2667,
      "peptidase": 2668,
      "Ġamong": 2669,
      "receptor": 2670,
      "Ġfetal": 2671,
      "Ġret": 2672,
      "idation": 2673,
      "Ġprof": 2674,
      "ione": 2675,
      "ype": 2676,
      "chlo": 2677,
      "Ġability": 2678,
      "Ġsuggests": 2679,
      "Ġhypertension": 2680,
      "Ġparticular": 2681,
      "Ġresidue": 2682,
      "Effects": 2683,
      "Ġchildren": 2684,
      "Ġdensity": 2685,
      "Ġov": 2686,
      "Ġfrag": 2687,
      "ections": 2688,
      "Ġhetero": 2689,
      "Ġprecip": 2690,
      "Ġsolub": 2691,
      "Ġregulation": 2692,
      "Ġlymphocytes": 2693,
      "bo": 2694,
      "Ġcri": 2695,
      "Ġcross": 2696,
      "ible": 2697,
      "zymes": 2698,
      "ady": 2699,
      "iaz": 2700,
      "ored": 2701,
      "Ġcoup": 2702,
      "Ġlyso": 2703,
      "Ġmixture": 2704,
      "ometric": 2705,
      "Ġslightly": 2706,
      "Ġpathway": 2707,
      "Ġextracellular": 2708,
      "oz": 2709,
      "tized": 2710,
      "Ġbic": 2711,
      "Ġrese": 2712,
      "acet": 2713,
      "Ġadult": 2714,
      "actin": 2715,
      "Ġminim": 2716,
      "ensitive": 2717,
      "Ġbacterial": 2718,
      "Ġstrongly": 2719,
      "Ġenhanced": 2720,
      "Ġprimary": 2721,
      "rifug": 2722,
      "atid": 2723,
      "Ġaqueous": 2724,
      "ark": 2725,
      "Ġstand": 2726,
      "Ġalte": 2727,
      "Ġcomposition": 2728,
      "Ġwho": 2729,
      "ĠPG": 2730,
      "Ġmono": 2731,
      "Ġconfirm": 2732,
      "operative": 2733,
      "bound": 2734,
      "tex": 2735,
      "Ġstar": 2736,
      "Ġpreven": 2737,
      "Ġinteractions": 2738,
      "Ġdiagnosis": 2739,
      "free": 2740,
      "ner": 2741,
      "ris": 2742,
      "till": 2743,
      "Ġsulph": 2744,
      "Ġbase": 2745,
      "ame": 2746,
      "Ġexercise": 2747,
      "Ġactivated": 2748,
      "ella": 2749,
      "ĠMn": 2750,
      "Ġlike": 2751,
      "otides": 2752,
      "eutic": 2753,
      "Ġperipheral": 2754,
      "ness": 2755,
      "sulf": 2756,
      "uted": 2757,
      "viron": 2758,
      "tional": 2759,
      "Ġresponsible": 2760,
      "Ġorganic": 2761,
      "Ġsymptom": 2762,
      "Ġquantitative": 2763,
      "Ġlittle": 2764,
      "aff": 2765,
      "ger": 2766,
      "get": 2767,
      "rit": 2768,
      "Ġnature": 2769,
      "odec": 2770,
      "Ġacidic": 2771,
      "Ġrespect": 2772,
      "Ġminutes": 2773,
      "ĠIII": 2774,
      "Ġadrenal": 2775,
      "Ġemp": 2776,
      "Ġrelatively": 2777,
      "Ġnitrogen": 2778,
      "osynthesis": 2779,
      "Ġaccompan": 2780,
      "phe": 2781,
      "ics": 2782,
      "Ġaccoun": 2783,
      "lasts": 2784,
      "Ġcourse": 2785,
      "Ġindependent": 2786,
      "eptide": 2787,
      "Ġoptimal": 2788,
      "Ġiron": 2789,
      "ococcus": 2790,
      "Ġobservations": 2791,
      "otransferase": 2792,
      "Ġang": 2793,
      "oly": 2794,
      "let": 2795,
      "ramine": 2796,
      "Ġcomplexes": 2797,
      "Ġconsidered": 2798,
      "Ġclass": 2799,
      "Ġdil": 2800,
      "Ġallow": 2801,
      "Ġcoeff": 2802,
      "Ġderived": 2803,
      "Ġsubunits": 2804,
      "30": 2805,
      "lect": 2806,
      "lied": 2807,
      "Ġap": 2808,
      "Ġpop": 2809,
      "Ġpanc": 2810,
      "Ġbind": 2811,
      "Ġmm": 2812,
      "Ġfall": 2813,
      "Ġnorm": 2814,
      "active": 2815,
      "Ġcontained": 2816,
      "Ġradioac": 2817,
      "Ġbecause": 2818,
      "Ġindivid": 2819,
      "Ġprostagland": 2820,
      "Ġnicot": 2821,
      "termin": 2822,
      "log": 2823,
      "ĠSephadex": 2824,
      "Ġshort": 2825,
      "Ġcause": 2826,
      "Ġartery": 2827,
      "Ġcalculated": 2828,
      "Ġassociation": 2829,
      "Ġessential": 2830,
      "Ġnecess": 2831,
      "Ph": 2832,
      "king": 2833,
      "Ġsince": 2834,
      "Ġreag": 2835,
      "Ġcontrac": 2836,
      "Ġperme": 2837,
      "Ġtransition": 2838,
      "Ġnorad": 2839,
      "ission": 2840,
      "Ġreleased": 2841,
      "Ġfunctional": 2842,
      "Ġadenylate": 2843,
      "Ġacetate": 2844,
      "Ġultra": 2845,
      "Ġmulti": 2846,
      "odecyl": 2847,
      "AMP": 2848,
      "jug": 2849,
      "ually": 2850,
      "Ġtw": 2851,
      "Ġsize": 2852,
      "urification": 2853,
      "Ġchick": 2854,
      "renol": 2855,
      "illary": 2856,
      "rypsin": 2857,
      "ococcal": 2858,
      "phen": 2859,
      "tiz": 2860,
      "anth": 2861,
      "ĠCl": 2862,
      "Ġorganism": 2863,
      "ricular": 2864,
      "ĠFurther": 2865,
      "azep": 2866,
      "Ġmolecules": 2867,
      "Ġrepres": 2868,
      "III": 2869,
      "Ġventil": 2870,
      "version": 2871,
      "Ġhomogene": 2872,
      "Ġelevated": 2873,
      "Ġexplain": 2874,
      "obarbital": 2875,
      "normal": 2876,
      "rage": 2877,
      "esterol": 2878,
      "Ġmust": 2879,
      "olec": 2880,
      "Ġhand": 2881,
      "Ġrather": 2882,
      "Ġcoun": 2883,
      "Ġequal": 2884,
      "view": 2885,
      "Ġcharacterization": 2886,
      "Ġsupport": 2887,
      "Ġisoelectric": 2888,
      "Ġbelow": 2889,
      "Ġintravenous": 2890,
      "phal": 2891,
      "Ġdeoxy": 2892,
      "Ġsubstances": 2893,
      "Ġmonth": 2894,
      "ryst": 2895,
      "Ġester": 2896,
      "Ġfibrin": 2897,
      "Ġcurve": 2898,
      "Ġtermin": 2899,
      "eration": 2900,
      "ially": 2901,
      "yth": 2902,
      "term": 2903,
      "Ġ35": 2904,
      "erated": 2905,
      "Ġimp": 2906,
      "ĠFrom": 2907,
      "Ġseries": 2908,
      "Ġclose": 2909,
      "valent": 2910,
      "Ġphosphorylation": 2911,
      "Ġexhibited": 2912,
      "Ġhypoxia": 2913,
      "oceptor": 2914,
      "ending": 2915,
      "Ġcation": 2916,
      "Ġlo": 2917,
      "ĠCon": 2918,
      "yclic": 2919,
      "Ġdistin": 2920,
      "Ġinfluen": 2921,
      "mitter": 2922,
      "lycerol": 2923,
      "Ġglutamine": 2924,
      "Ġsurgery": 2925,
      "EAE": 2926,
      "phyl": 2927,
      "Ġenviron": 2928,
      "ĠComp": 2929,
      "Ġsubstitu": 2930,
      "Ġhypothe": 2931,
      "Ġexposure": 2932,
      "itude": 2933,
      "Ġremained": 2934,
      "Ġdonor": 2935,
      "stim": 2936,
      "ural": 2937,
      "vant": 2938,
      "Ġcy": 2939,
      "Ġbrom": 2940,
      "Ġbond": 2941,
      "Ġdodecyl": 2942,
      "Ġconduc": 2943,
      "Ġcontrols": 2944,
      "Ġoutput": 2945,
      "Ġolig": 2946,
      "onia": 2947,
      "rogen": 2948,
      "ang": 2949,
      "Ġrepl": 2950,
      "Ġcompetitive": 2951,
      "Ġanalges": 2952,
      "Ġmyocardial": 2953,
      "DTA": 2954,
      "SF": 2955,
      "hest": 2956,
      "ird": 2957,
      "Ġabsorb": 2958,
      "Ġmetal": 2959,
      "Ġdegrad": 2960,
      "ĠATPase": 2961,
      "Ġmaterial": 2962,
      "are": 2963,
      "dic": 2964,
      "hal": 2965,
      "nat": 2966,
      "the": 2967,
      "Ġos": 2968,
      "Ġbile": 2969,
      "iting": 2970,
      "itamin": 2971,
      "ators": 2972,
      "Ġgreat": 2973,
      "otor": 2974,
      "Ġalmost": 2975,
      "ionic": 2976,
      "Ġspont": 2977,
      "Ġcortex": 2978,
      "Ġplac": 2979,
      "Ġrise": 2980,
      "Ġtechniques": 2981,
      "Ġcollagen": 2982,
      "05": 2983,
      "ias": 2984,
      "xi": 2985,
      "Ġave": 2986,
      "atus": 2987,
      "ternal": 2988,
      "verse": 2989,
      "emic": 2990,
      "Ġcellular": 2991,
      "ophosphate": 2992,
      "ruct": 2993,
      "Ġstructural": 2994,
      "Ġammonium": 2995,
      "glutin": 2996,
      "Ġbicarbonate": 2997,
      "oden": 2998,
      "ĠDEAE": 2999,
      "erate": 3000,
      "Ġpotenti": 3001,
      "Ġpeptide": 3002,
      "Ġtherm": 3003,
      "Ġconformational": 3004,
      "pyr": 3005,
      "treatment": 3006,
      "yz": 3007,
      "Ġed": 3008,
      "Ġpass": 3009,
      "angl": 3010,
      "Ġnar": 3011,
      "Ġpercent": 3012,
      "ĠFor": 3013,
      "lind": 3014,
      "Ġprolactin": 3015,
      "Ġseparated": 3016,
      "Ġmitochondrial": 3017,
      "Ġammonia": 3018,
      "cer": 3019,
      "sess": 3020,
      "yn": 3021,
      "ying": 3022,
      "Ġtra": 3023,
      "Ġshe": 3024,
      "Ġpep": 3025,
      "Ġpenic": 3026,
      "Ġneur": 3027,
      "Ġprotease": 3028,
      "cellulose": 3029,
      "Ġproportion": 3030,
      "Ġdiseases": 3031,
      "Ġbehavi": 3032,
      "Ġfrequency": 3033,
      "Ġestablished": 3034,
      "Ġpy": 3035,
      "eric": 3036,
      "Ġepid": 3037,
      "Ġneuron": 3038,
      "Ġleft": 3039,
      "ended": 3040,
      "Ġinternal": 3041,
      "Ġcurves": 3042,
      "Ġvenous": 3043,
      "Ġsubunit": 3044,
      "pinephrine": 3045,
      "host": 3046,
      "tation": 3047,
      "Ġband": 3048,
      "Ġmight": 3049,
      "order": 3050,
      "Ġelimin": 3051,
      "Ġextraction": 3052,
      "Ġmarrow": 3053,
      "Ġbased": 3054,
      "Ġmodified": 3055,
      "Ġintestinal": 3056,
      "accharide": 3057,
      "Ġincorporation": 3058,
      "den": 3059,
      "onal": 3060,
      "round": 3061,
      "ulating": 3062,
      "ĠThey": 3063,
      "Ġvascular": 3064,
      "Ġseroton": 3065,
      "oproterenol": 3066,
      "Ġorigin": 3067,
      "Ġdistinct": 3068,
      "16": 3069,
      "Th": 3070,
      "eness": 3071,
      "ording": 3072,
      "olution": 3073,
      "ults": 3074,
      "acillus": 3075,
      "Ġprov": 3076,
      "ĠADP": 3077,
      "quid": 3078,
      "Ġ28": 3079,
      "Ġdiffer": 3080,
      "Ġpartial": 3081,
      "Ġmonke": 3082,
      "athione": 3083,
      "Ġbiochemical": 3084,
      "Ġmany": 3085,
      "Ġnucleotide": 3086,
      "Ġplacebo": 3087,
      "Ġresonance": 3088,
      "Comp": 3089,
      "VH": 3090,
      "bly": 3091,
      "ucine": 3092,
      "Ġ22": 3093,
      "ĠHCO": 3094,
      "Ġrh": 3095,
      "Ġsucrose": 3096,
      "Ġgrown": 3097,
      "Ġspectrum": 3098,
      "Ġinvestigation": 3099,
      "Ġdefin": 3100,
      "SH": 3101,
      "des": 3102,
      "Ġsem": 3103,
      "actic": 3104,
      "ĠBy": 3105,
      "Ġindicates": 3106,
      "Ġexcess": 3107,
      "onuclease": 3108,
      "Ġlysozyme": 3109,
      "+-": 3110,
      "NAD": 3111,
      "TH": 3112,
      "ctions": 3113,
      "cap": 3114,
      "Ġcryp": 3115,
      "anide": 3116,
      "lep": 3117,
      "Ġgangl": 3118,
      "ump": 3119,
      "Ġsubsequ": 3120,
      "Ġapplied": 3121,
      "Ġimpl": 3122,
      "Ġdetermine": 3123,
      "Ġsuggesting": 3124,
      "Ġproposed": 3125,
      "Ġethyl": 3126,
      "Ġavail": 3127,
      "17": 3128,
      "Gl": 3129,
      "Ġax": 3130,
      "rept": 3131,
      "Ġwill": 3132,
      "Ġbre": 3133,
      "oglyce": 3134,
      "Ġarea": 3135,
      "ĠSe": 3136,
      "Ġpotent": 3137,
      "Ġcathe": 3138,
      "Ġocc": 3139,
      "Ġexposed": 3140,
      "Ġmainly": 3141,
      "changed": 3142,
      "+.": 3143,
      "carb": 3144,
      "hing": 3145,
      "ĠZ": 3146,
      "Ġcations": 3147,
      "Ġcryst": 3148,
      "raw": 3149,
      "Ġfac": 3150,
      "Ġach": 3151,
      "omycin": 3152,
      "Ġgood": 3153,
      "els": 3154,
      "Ġsuff": 3155,
      "agne": 3156,
      "ormation": 3157,
      "orepinephrine": 3158,
      "Ġreactivity": 3159,
      "tensin": 3160,
      "Ġ90": 3161,
      "Ġsalt": 3162,
      "Ġantibio": 3163,
      "Ġcholesterol": 3164,
      "Ġsupernat": 3165,
      "Ġsediment": 3166,
      "Ġenvironment": 3167,
      "eg": 3168,
      "onas": 3169,
      "estion": 3170,
      "Ġlate": 3171,
      "Ġvis": 3172,
      "resh": 3173,
      "ĠNH": 3174,
      "hibition": 3175,
      "oretic": 3176,
      "ayer": 3177,
      "iving": 3178,
      "aminase": 3179,
      "ributed": 3180,
      "Ġsugar": 3181,
      "Ġcontrolled": 3182,
      "Ġimmedi": 3183,
      "kele": 3184,
      "Ġuseful": 3185,
      "Ġpolyacrylamide": 3186,
      "Ġincubated": 3187,
      "Ġprolong": 3188,
      "Ġcombined": 3189,
      "Ġrecovery": 3190,
      "Ġnervous": 3191,
      "plantation": 3192,
      "Ġdegradation": 3193,
      "Ġaverage": 3194,
      "Ġbehaviour": 3195,
      "Al": 3196,
      "ef": 3197,
      "hr": 3198,
      "Ġmil": 3199,
      "idal": 3200,
      "veral": 3201,
      "unction": 3202,
      "ylated": 3203,
      "ilization": 3204,
      "ĠIg": 3205,
      "Ġpoint": 3206,
      "Ġaminotransferase": 3207,
      "Ġsurv": 3208,
      "Ġsurgical": 3209,
      "Ġintermediate": 3210,
      "Ġterms": 3211,
      "rinsic": 3212,
      ".)": 3213,
      "Na": 3214,
      "cine": 3215,
      "Ġill": 3216,
      "Ġsch": 3217,
      "roup": 3218,
      "Ġbal": 3219,
      "Ġfoc": 3220,
      "Ġdispl": 3221,
      "Ġpolyp": 3222,
      "Ġbiosynthesis": 3223,
      "Ġcauses": 3224,
      "Ġrecip": 3225,
      "iotensin": 3226,
      "Ġtherapeutic": 3227,
      "Ġimportance": 3228,
      "Ġevaluated": 3229,
      "197": 3230,
      "Ġtaken": 3231,
      "Ġachie": 3232,
      "agnetic": 3233,
      "40": 3234,
      "xt": 3235,
      "Ġul": 3236,
      "hex": 3237,
      "Ġvar": 3238,
      "Ġspin": 3239,
      "ralle": 3240,
      "ĠPCO": 3241,
      "Ġsuccess": 3242,
      "Ġblocked": 3243,
      "Ġcorrelated": 3244,
      "Ġextract": 3245,
      "Ġmixed": 3246,
      "Ġspermat": 3247,
      "yroid": 3248,
      "Ġnoradrenaline": 3249,
      "aily": 3250,
      "dim": 3251,
      "hyp": 3252,
      "nit": 3253,
      "Ġ--": 3254,
      "Ġdich": 3255,
      "Ġdimin": 3256,
      "ortic": 3257,
      "Ġfav": 3258,
      "osin": 3259,
      "rior": 3260,
      "Ġabnormal": 3261,
      "Ġcare": 3262,
      "Ġfluor": 3263,
      "Ġinjected": 3264,
      "Proceedings": 3265,
      "Ġseems": 3266,
      "Ġshift": 3267,
      "chloride": 3268,
      "Ġlesions": 3269,
      "Ġpancre": 3270,
      "-,": 3271,
      "57": 3272,
      "PA": 3273,
      "oro": 3274,
      "Ġthem": 3275,
      "ray": 3276,
      "Ġmass": 3277,
      "arter": 3278,
      "Ġvers": 3279,
      "opath": 3280,
      "Ġhel": 3281,
      "lux": 3282,
      "Ġagon": 3283,
      "hemoglobin": 3284,
      "Ġcondition": 3285,
      "aneously": 3286,
      "pecially": 3287,
      "versus": 3288,
      "Ġdirectly": 3289,
      "ospital": 3290,
      "orders": 3291,
      "Ġpharmacological": 3292,
      "Ġduration": 3293,
      "Ġhypothesis": 3294,
      "Ġsupernatant": 3295,
      "%.": 3296,
      "sub": 3297,
      "Ġsitu": 3298,
      "Ġwall": 3299,
      "ĠTwo": 3300,
      "Ġnear": 3301,
      "gene": 3302,
      "Ġunchanged": 3303,
      "Ġelectrical": 3304,
      "Ġmeasurement": 3305,
      "oraz": 3306,
      "rifugation": 3307,
      "Ġstandard": 3308,
      "Ġaccompanied": 3309,
      "Ġnecessary": 3310,
      "Ġmonths": 3311,
      "vis": 3312,
      "Ġturn": 3313,
      "Ġour": 3314,
      "Ġskele": 3315,
      "Ġmac": 3316,
      "Ġhost": 3317,
      "using": 3318,
      "Ġgave": 3319,
      "ticular": 3320,
      "Ġexternal": 3321,
      "oxic": 3322,
      "torch": 3323,
      "tents": 3324,
      "Ġaryl": 3325,
      "Ġposition": 3326,
      "Ġphysical": 3327,
      "Ġanimal": 3328,
      "Ġneurotrans": 3329,
      "ĠAlthough": 3330,
      "containing": 3331,
      "Ġtitration": 3332,
      "Ġdecreases": 3333,
      "Ġneurons": 3334,
      "bs": 3335,
      "day": 3336,
      "ength": 3337,
      "atin": 3338,
      "romatic": 3339,
      "Ġpredom": 3340,
      "Ġneed": 3341,
      "last": 3342,
      "Ġapplication": 3343,
      "Ġpossess": 3344,
      "ximal": 3345,
      "Ġcann": 3346,
      "Ġcycle": 3347,
      "Ġespecially": 3348,
      "Ġneurolep": 3349,
      "Ġerythrocyte": 3350,
      "Ġpredomin": 3351,
      "binding": 3352,
      "comp": 3353,
      "meth": 3354,
      "itor": 3355,
      "Ġreview": 3356,
      "umption": 3357,
      "Ġisoproterenol": 3358,
      "ogl": 3359,
      "ymot": 3360,
      "Ġtranspeptidase": 3361,
      "ĠDuring": 3362,
      "ĠRes": 3363,
      "lycer": 3364,
      "Ġhighest": 3365,
      "Ġtherefore": 3366,
      "Ġlinear": 3367,
      "Ġprostaglandin": 3368,
      "orazepam": 3369,
      "01": 3370,
      "35": 3371,
      "ket": 3372,
      "Ġbl": 3373,
      "olys": 3374,
      "idaz": 3375,
      "Ġaltered": 3376,
      "Ġparalle": 3377,
      "tence": 3378,
      "ĠBi": 3379,
      "Ġvariation": 3380,
      "Ġvariations": 3381,
      "Ġsalic": 3382,
      "adrenoceptor": 3383,
      "Ġanesthesia": 3384,
      "Ġhealthy": 3385,
      "labeled": 3386,
      "Ġserotonin": 3387,
      "24": 3388,
      "RH": 3389,
      "ii": 3390,
      "iff": 3391,
      "Ġbro": 3392,
      "Ġbone": 3393,
      "Ġdam": 3394,
      "arin": 3395,
      "Ġconjug": 3396,
      "Ġvitamin": 3397,
      "Ġstab": 3398,
      "ĠEDTA": 3399,
      "Ġresulting": 3400,
      "Ġsignificance": 3401,
      "Ġmedical": 3402,
      "Ġplot": 3403,
      "Ġlabora": 3404,
      "Ġchlorop": 3405,
      "Ġaggregation": 3406,
      "ging": 3407,
      "titis": 3408,
      "enter": 3409,
      "rat": 3410,
      "alysis": 3411,
      "organ": 3412,
      "Ġfo": 3413,
      "ulum": 3414,
      "vered": 3415,
      "inetic": 3416,
      "Ġshock": 3417,
      "Ġhypo": 3418,
      "Ġrelax": 3419,
      "acetic": 3420,
      "Ġexperi": 3421,
      "Ġtoxin": 3422,
      "Ġglutathione": 3423,
      "Ġreceived": 3424,
      "80": 3425,
      "SA": 3426,
      "born": 3427,
      "Ġanxi": 3428,
      "Ġear": 3429,
      "Ġacceptor": 3430,
      "omach": 3431,
      "nth": 3432,
      "agement": 3433,
      "ĠSince": 3434,
      "Ġsynthetic": 3435,
      "ovascular": 3436,
      "Ġphenomen": 3437,
      "Ġantibodies": 3438,
      "Ġemb": 3439,
      "Ġsymptoms": 3440,
      "Ġpancreatic": 3441,
      "Ġair": 3442,
      "Ġchem": 3443,
      "oprop": 3444,
      "ĠEC": 3445,
      "Ġweak": 3446,
      "Ġcontains": 3447,
      "Ġbasic": 3448,
      "Ġju": 3449,
      "Ġsecondary": 3450,
      "Ġpregnancy": 3451,
      "HT": 3452,
      "Purification": 3453,
      "oate": 3454,
      "udom": 3455,
      "Ġprior": 3456,
      "asic": 3457,
      "Ġelu": 3458,
      "quin": 3459,
      "Ġspl": 3460,
      "Ġsimult": 3461,
      "Ġyoun": 3462,
      "lications": 3463,
      "Ġendogenous": 3464,
      "Ġselective": 3465,
      "Ġseparation": 3466,
      "Ġpneumonia": 3467,
      "Ġmilk": 3468,
      "Ġskeletal": 3469,
      "23": 3470,
      "OH": 3471,
      "iration": 3472,
      "ired": 3473,
      "yg": 3474,
      "Ġtole": 3475,
      "tile": 3476,
      "Ġstill": 3477,
      "Ġdaily": 3478,
      "Ġmob": 3479,
      "Ġfix": 3480,
      "Ġreport": 3481,
      "utri": 3482,
      "deoxy": 3483,
      "Ġ80": 3484,
      "Ġrecom": 3485,
      "Ġnucleotides": 3486,
      "Ġcytoplas": 3487,
      "atural": 3488,
      "okinase": 3489,
      "Ġproblems": 3490,
      "Ġaz": 3491,
      "Ġintens": 3492,
      "etric": 3493,
      "ĠAr": 3494,
      "mentation": 3495,
      "Ġsex": 3496,
      "odiazep": 3497,
      "rophenyl": 3498,
      "Ġcryptorch": 3499,
      "Ġ'": 3500,
      "Ġmum": 3501,
      "Ġfew": 3502,
      "Ġnit": 3503,
      "Ġnatural": 3504,
      "omic": 3505,
      "seudom": 3506,
      "Ġprecur": 3507,
      "max": 3508,
      "linked": 3509,
      "Ġconstitu": 3510,
      "Ġdeli": 3511,
      "Ġdetection": 3512,
      "Ġinactivated": 3513,
      "Ġchains": 3514,
      "Ġcleav": 3515,
      "13": 3516,
      "sensitive": 3517,
      "inamide": 3518,
      "Ġtend": 3519,
      "Ġcitrate": 3520,
      "esium": 3521,
      "Ġstates": 3522,
      "oglyc": 3523,
      "Ġpaper": 3524,
      "Ġdiffusion": 3525,
      "Ġphosphatid": 3526,
      "Ġgland": 3527,
      "Ġmeasuring": 3528,
      "Ġsynthes": 3529,
      "Ġregard": 3530,
      "Ġnuclear": 3531,
      "Ġdisturb": 3532,
      "Ġremoval": 3533,
      "Ġadenine": 3534,
      "Ġdetect": 3535,
      "Ġdepends": 3536,
      "Ġevaluation": 3537,
      "ozo": 3538,
      "of": 3539,
      "rich": 3540,
      "Ġiod": 3541,
      "ences": 3542,
      "Ġmid": 3543,
      "anil": 3544,
      "Ġacross": 3545,
      "Ġconversion": 3546,
      "ils": 3547,
      "Ġstomach": 3548,
      "ĠSim": 3549,
      "othal": 3550,
      "Ġmonomer": 3551,
      "Ġmaintained": 3552,
      "Ġmutant": 3553,
      "Ġmodification": 3554,
      "Ġprocedures": 3555,
      "Ġperfusion": 3556,
      "Ġaspects": 3557,
      "ĠpKa": 3558,
      "ivalent": 3559,
      "ginine": 3560,
      "Ġcomparable": 3561,
      "Ġcoefficient": 3562,
      "Ġnarco": 3563,
      "18": 3564,
      "chem": 3565,
      "less": 3566,
      "set": 3567,
      "yle": 3568,
      "itone": 3569,
      "omers": 3570,
      "acid": 3571,
      "immun": 3572,
      "Ġvac": 3573,
      "ionine": 3574,
      "cha": 3575,
      "ayed": 3576,
      "Ġabol": 3577,
      "aminergic": 3578,
      "cepti": 3579,
      "Ġ70": 3580,
      "astric": 3581,
      "Ġinterpre": 3582,
      "Ġris": 3583,
      "Ġsuccin": 3584,
      "Ġsteady": 3585,
      "orage": 3586,
      "vidence": 3587,
      "Ġradioactivity": 3588,
      "Ġversus": 3589,
      "ymotrypsin": 3590,
      "60": 3591,
      "mg": 3592,
      "oral": 3593,
      "Ġent": 3594,
      "ulations": 3595,
      "uch": 3596,
      "Ġcontents": 3597,
      "dip": 3598,
      "Ġstatus": 3599,
      "thal": 3600,
      "Ġhepat": 3601,
      "Ġintrinsic": 3602,
      "ĠLH": 3603,
      "Ġunderg": 3604,
      "Ġmanagement": 3605,
      "orphine": 3606,
      "Ġcatalyzed": 3607,
      "Ġmucosa": 3608,
      "Ġacetylcholine": 3609,
      "flavin": 3610,
      "Ġcontinuous": 3611,
      "Ġindividual": 3612,
      "oglycerate": 3613,
      "Ġsedimentation": 3614,
      "seudomonas": 3615,
      "bility": 3616,
      "equ": 3617,
      "more": 3618,
      "hetic": 3619,
      "Ġoff": 3620,
      "aster": 3621,
      "Ġwide": 3622,
      "itable": 3623,
      "ercur": 3624,
      "olate": 3625,
      "Ġtoget": 3626,
      "Ġnorepinephrine": 3627,
      "Ġvia": 3628,
      "Ġ21": 3629,
      "Ġdisorders": 3630,
      "izoph": 3631,
      "Ġpolys": 3632,
      "NAc": 3633,
      "erobic": 3634,
      "copic": 3635,
      "Ġcatecholamines": 3636,
      "Ġpermeability": 3637,
      "Ġtogether": 3638,
      "izophren": 3639,
      "NH": 3640,
      "aw": 3641,
      "lact": 3642,
      "oes": 3643,
      "oic": 3644,
      "type": 3645,
      "yed": 3646,
      "Ġtrial": 3647,
      "test": 3648,
      "Ġpron": 3649,
      "Ġdin": 3650,
      "ications": 3651,
      "lob": 3652,
      "Ġ45": 3653,
      "Ġ48": 3654,
      "ubation": 3655,
      "Ġinterf": 3656,
      "Ġmutants": 3657,
      "Ġpatterns": 3658,
      "Ġduoden": 3659,
      "Ġanaesthesia": 3660,
      "nthase": 3661,
      "CP": 3662,
      "dep": 3663,
      "ients": 3664,
      "oyl": 3665,
      "py": 3666,
      "enzymes": 3667,
      "Ġinst": 3668,
      "Ġvary": 3669,
      "Ġstatis": 3670,
      "elled": 3671,
      "Ġ200": 3672,
      "ights": 3673,
      "Ġconclusion": 3674,
      "Ġimpa": 3675,
      "matic": 3676,
      "Ġdecarbox": 3677,
      "Ġhydrochloride": 3678,
      "ucleotide": 3679,
      "obic": 3680,
      "rincip": 3681,
      "Ġtemperatures": 3682,
      "Ġbasal": 3683,
      "Ġadrenaline": 3684,
      "Ġirradi": 3685,
      "Ġpeptides": 3686,
      "Ġview": 3687,
      "Ġmediated": 3688,
      "rude": 3689,
      "Ġventricular": 3690,
      "Ġmultiple": 3691,
      "Ġsurvival": 3692,
      "organic": 3693,
      "fusion": 3694,
      "Ġoften": 3695,
      "Ġcop": 3696,
      "orrh": 3697,
      "Ġvag": 3698,
      "ogn": 3699,
      "ĠCSF": 3700,
      "Ġadj": 3701,
      "Ġtransm": 3702,
      "Ġcarcin": 3703,
      "ĠGVH": 3704,
      "artate": 3705,
      "Ġdifferenti": 3706,
      "Ġwhether": 3707,
      "Ġspectros": 3708,
      "Ġderivative": 3709,
      "Ġcharacteristic": 3710,
      "Ġtowards": 3711,
      "Ġload": 3712,
      "%,": 3713,
      "',": 3714,
      "del": 3715,
      "lim": 3716,
      "oin": 3717,
      "ohyd": 3718,
      "wh": 3719,
      "Ġtension": 3720,
      "rase": 3721,
      "Ġlog": 3722,
      "Ġgalact": 3723,
      "Ġconver": 3724,
      "amb": 3725,
      "Ġparent": 3726,
      "Ġpers": 3727,
      "Ġsynthase": 3728,
      "aternal": 3729,
      "rophot": 3730,
      "Ġring": 3731,
      "Ġaccording": 3732,
      "Ġparticulate": 3733,
      "Ġcaps": 3734,
      "Ġdosage": 3735,
      "Ġhormones": 3736,
      "Ġresistant": 3737,
      "Ġintestine": 3738,
      "Ġmagnitude": 3739,
      "Ġpenicillin": 3740,
      "Ġlaboratory": 3741,
      "11": 3742,
      "aph": 3743,
      "onium": 3744,
      "Ġmove": 3745,
      "icial": 3746,
      "Ġretic": 3747,
      "osal": 3748,
      "omized": 3749,
      "Ġasc": 3750,
      "ĠPa": 3751,
      "ĠPro": 3752,
      "001": 3753,
      "rosis": 3754,
      "Ġinfants": 3755,
      "Ġnoted": 3756,
      "Ġvariety": 3757,
      "eptides": 3758,
      "rapy": 3759,
      "Ġinvolving": 3760,
      "Ġcurrent": 3761,
      "Ġtrig": 3762,
      "Ġold": 3763,
      "Ġreversible": 3764,
      "Ġtrache": 3765,
      "Ġconfirmed": 3766,
      "Ġspontaneous": 3767,
      "Ġprolonged": 3768,
      "Ġachieved": 3769,
      "Ġdichro": 3770,
      "-[": 3771,
      "hist": 3772,
      "nia": 3773,
      "tri": 3774,
      "ura": 3775,
      "rever": 3776,
      "Ġsar": 3777,
      "Ġwomen": 3778,
      "orded": 3779,
      "Ġfood": 3780,
      "acy": 3781,
      "perim": 3782,
      "rosp": 3783,
      "Ġspecial": 3784,
      "ĠOne": 3785,
      "Ġanalys": 3786,
      "Ġextre": 3787,
      "Ġconsumption": 3788,
      "Ġsmo": 3789,
      "Ġcapable": 3790,
      "Ġdemonstrate": 3791,
      "Ġcirculation": 3792,
      "tization": 3793,
      "Ġprovide": 3794,
      "200": 3795,
      "tice": 3796,
      "Ġpow": 3797,
      "Ġanother": 3798,
      "ithel": 3799,
      "Ġfed": 3800,
      "Ġlife": 3801,
      "Ġstorage": 3802,
      "oper": 3803,
      "oprenaline": 3804,
      "rene": 3805,
      "ĠBacillus": 3806,
      "Ġtestis": 3807,
      "ontrol": 3808,
      "Ġphenylalanine": 3809,
      "Ġouter": 3810,
      "Ġschizophren": 3811,
      "Ġfluoride": 3812,
      "En": 3813,
      "St": 3814,
      "aro": 3815,
      "inergic": 3816,
      "ening": 3817,
      "ols": 3818,
      "arch": 3819,
      "Ġnet": 3820,
      "ilities": 3821,
      "Ġcontrib": 3822,
      "Ġconcer": 3823,
      "pharose": 3824,
      "Ġionization": 3825,
      "Ġfunctions": 3826,
      "orphy": 3827,
      "Ġadditional": 3828,
      "Ġapparently": 3829,
      "Ġpneumococcal": 3830,
      "tetra": 3831,
      "Ġtumor": 3832,
      "Ġsequence": 3833,
      "ysteine": 3834,
      "phetamine": 3835,
      "Ġyoung": 3836,
      "Ġbo": 3837,
      "Ġmat": 3838,
      "Ġfast": 3839,
      "idol": 3840,
      "lets": 3841,
      "Ġlack": 3842,
      "Ġconn": 3843,
      "Ġischem": 3844,
      "Ġexogenous": 3845,
      "opa": 3846,
      "Ġareas": 3847,
      "Ġinformation": 3848,
      "Ġhaving": 3849,
      "Ġhydroph": 3850,
      "ĠGl": 3851,
      "Ġmetabolite": 3852,
      "Ġrabbits": 3853,
      "Ġcarboxyl": 3854,
      "Ġguanylate": 3855,
      "Ġpossibility": 3856,
      "Ġcharge": 3857,
      "mann": 3858,
      "Ġemplo": 3859,
      "Ġvaried": 3860,
      "rus": 3861,
      "Ġaromatic": 3862,
      "orts": 3863,
      "Ġfact": 3864,
      "Ġfield": 3865,
      "Ġhospital": 3866,
      "Ġnutri": 3867,
      "etabol": 3868,
      "ime": 3869,
      "Ġatten": 3870,
      "Ġsup": 3871,
      "irus": 3872,
      "ching": 3873,
      "Ġpref": 3874,
      "Ġunits": 3875,
      "Ġsolvent": 3876,
      "Ġinterfer": 3877,
      "Ġphysici": 3878,
      "Ġsaliv": 3879,
      "Ġlabeled": 3880,
      "Ġprocesses": 3881,
      "Ġcircular": 3882,
      "Ġantagonist": 3883,
      "Ġantagonists": 3884,
      "Ġperfused": 3885,
      "Ġveloc": 3886,
      "Ġmagnesium": 3887,
      "Ġfailure": 3888,
      "ĠUnder": 3889,
      "Ġalterations": 3890,
      "Ġsulphate": 3891,
      "Ġembry": 3892,
      "CN": 3893,
      "De": 3894,
      "Ġdest": 3895,
      "Ġmel": 3896,
      "idin": 3897,
      "uls": 3898,
      "Ġact": 3899,
      "ylamine": 3900,
      "rest": 3901,
      "Ġalanine": 3902,
      "ema": 3903,
      "ĠEn": 3904,
      "Ġdesign": 3905,
      "Ġstero": 3906,
      "Ġmoderate": 3907,
      "Ġseparate": 3908,
      "Ġenhance": 3909,
      "razepam": 3910,
      "accharides": 3911,
      "Ġdimer": 3912,
      "ophilic": 3913,
      "Ġsource": 3914,
      "Ġprevented": 3915,
      "Ġangiotensin": 3916,
      "Ġsubsequent": 3917,
      "Ġavailable": 3918,
      ");": 3919,
      "path": 3920,
      "uan": 3921,
      "Ġinactive": 3922,
      "Ġmam": 3923,
      "Ġfrog": 3924,
      "Ġeight": 3925,
      "ostic": 3926,
      "Ġnig": 3927,
      "Ġthough": 3928,
      "Ġlast": 3929,
      "imide": 3930,
      "Ġprot": 3931,
      "Ġstress": 3932,
      "racyc": 3933,
      "ĠPre": 3934,
      "yces": 3935,
      "Ġflux": 3936,
      "related": 3937,
      "Ġcardiovascular": 3938,
      "Ġtestosterone": 3939,
      "Ġextracted": 3940,
      "Ġself": 3941,
      "Ġtoxicity": 3942,
      "Ġsuscepti": 3943,
      "Ġethanol": 3944,
      "Ġpopulation": 3945,
      "LA": 3946,
      "Se": 3947,
      "ean": 3948,
      "Ġtreat": 3949,
      "Ġprincip": 3950,
      "rating": 3951,
      "amp": 3952,
      "Ġonset": 3953,
      "Ġdivalent": 3954,
      "Ġadap": 3955,
      "oreceptor": 3956,
      "ayers": 3957,
      "Ġket": 3958,
      "ophys": 3959,
      "Ġlowered": 3960,
      "Ġexperiment": 3961,
      "Ġcytos": 3962,
      "Ġprevious": 3963,
      "Ġplatelet": 3964,
      "Ġprovided": 3965,
      "Ġhyb": 3966,
      "Ġrepresent": 3967,
      "ructose": 3968,
      "dimethyl": 3969,
      "Ġcleavage": 3970,
      "Im": 3971,
      "SO": 3972,
      "cies": 3973,
      "mo": 3974,
      "prom": 3975,
      "pig": 3976,
      "tition": 3977,
      "Ġmes": 3978,
      "Ġmagnetic": 3979,
      "ert": 3980,
      "olved": 3981,
      "Ġhyd": 3982,
      "tivation": 3983,
      "ĠCoA": 3984,
      "Ġdiazepam": 3985,
      "Ġdisapp": 3986,
      "lasma": 3987,
      "Ġproteolytic": 3988,
      "Ġphosphodies": 3989,
      "ropri": 3990,
      "Ġmuscles": 3991,
      "Ġremo": 3992,
      "Ġnewborn": 3993,
      "Ġinjur": 3994,
      "Ġelectrophoretic": 3995,
      "Ġlysosomal": 3996,
      "Ġlonger": 3997,
      "rhyth": 3998,
      "Ġventilation": 3999,
      "Ġbreak": 4000,
      "Ġbalance": 4001,
      "Ġparallel": 4002,
      "Ġnarcotic": 4003,
      "Ġmammal": 4004,
      "+/-": 4005,
      "GT": 4006,
      "glyc": 4007,
      "gamma": 4008,
      "ik": 4009,
      "itions": 4010,
      "ĠtRNA": 4011,
      "Ġcrude": 4012,
      "Ġhor": 4013,
      "Ġlater": 4014,
      "Ġable": 4015,
      "Ġseg": 4016,
      "aptic": 4017,
      "Ġelic": 4018,
      "Ġhypothal": 4019,
      "Ġcortic": 4020,
      "Ġcolon": 4021,
      "obacter": 4022,
      "Ġgraf": 4023,
      "Ġgastro": 4024,
      "Ġuter": 4025,
      "Ġreagents": 4026,
      "olecular": 4027,
      "Ġspermatozo": 4028,
      "Ġtolerance": 4029,
      "22": 4030,
      "Ex": 4031,
      "blind": 4032,
      "gg": 4033,
      "pos": 4034,
      "rup": 4035,
      "ĠY": 4036,
      "Ġinorganic": 4037,
      "alt": 4038,
      "itary": 4039,
      "leep": 4040,
      "Ġacyl": 4041,
      "Ġlorazepam": 4042,
      "ĠAC": 4043,
      "Ġexist": 4044,
      "Ġexcept": 4045,
      "Ġ23": 4046,
      "Ġdiffic": 4047,
      "Ġinhibits": 4048,
      "Ġregions": 4049,
      "aturated": 4050,
      "Ġlarger": 4051,
      "Ġreference": 4052,
      "Ġligand": 4053,
      "pathetic": 4054,
      "Ġminimal": 4055,
      "Ġhomogeneous": 4056,
      "Ġjuice": 4057,
      "Ġdichroism": 4058,
      "ds": 4059,
      "psin": 4060,
      "rection": 4061,
      "Ġsaturation": 4062,
      "alk": 4063,
      "Ġbur": 4064,
      "Ġdet": 4065,
      "Ġlum": 4066,
      "Ġ27": 4067,
      "Ġacidification": 4068,
      "ĠSal": 4069,
      "ĠSome": 4070,
      "Ġprevent": 4071,
      "ĠMore": 4072,
      "ĠHe": 4073,
      "Ġimmob": 4074,
      "Ġrecorded": 4075,
      "Ġnucleus": 4076,
      "Ġlipase": 4077,
      "Ġirrever": 4078,
      "Ġcultured": 4079,
      "glucose": 4080,
      "mediated": 4081,
      "Ġlimited": 4082,
      "Ġpossibly": 4083,
      "Ġparticularly": 4084,
      "Ġcoupling": 4085,
      "ĠFurthermore": 4086,
      "Ġreplac": 4087,
      "idazole": 4088,
      "Ġdelivery": 4089,
      "Ġdetectable": 4090,
      "ropriate": 4091,
      "Ġremoved": 4092,
      "vation": 4093,
      "inf": 4094,
      "Ġfa": 4095,
      "cephal": 4096,
      "Ġstage": 4097,
      "ectomy": 4098,
      "Ġattem": 4099,
      "ĠNe": 4100,
      "Ġbetter": 4101,
      "ĠHg": 4102,
      "ensions": 4103,
      "parag": 4104,
      "Ġliquid": 4105,
      "Ġdepression": 4106,
      "Ġyiel": 4107,
      "phosphoglycerate": 4108,
      "Ġinsuff": 4109,
      "Ġcatalyz": 4110,
      "Ġ125": 4111,
      "Ġtoxic": 4112,
      "Ġelectroly": 4113,
      "Ġpolymer": 4114,
      "Ġbenzodiazep": 4115,
      "Ġimproved": 4116,
      "Ġvelocity": 4117,
      "PS": 4118,
      "Ġte": 4119,
      "Ġset": 4120,
      "ese": 4121,
      "itant": 4122,
      "aring": 4123,
      "ectiv": 4124,
      "acyl": 4125,
      "imens": 4126,
      "Ġvess": 4127,
      "upp": 4128,
      "istant": 4129,
      "ĠHb": 4130,
      "ĠEff": 4131,
      "odil": 4132,
      "Ġspecif": 4133,
      "arily": 4134,
      "ophyl": 4135,
      "Ġdeple": 4136,
      "Ġmedull": 4137,
      "Ġsystemic": 4138,
      "phosphatase": 4139,
      "Ġoxidized": 4140,
      "ography": 4141,
      "ĠUDP": 4142,
      "Ġrandom": 4143,
      "ĠNaCl": 4144,
      "Ġradio": 4145,
      "Ġhomogenates": 4146,
      "Ġantigens": 4147,
      "Ġessentially": 4148,
      "ammatory": 4149,
      "Ġfailed": 4150,
      "Ġreturn": 4151,
      "Ġsmooth": 4152,
      "21": 4153,
      "chemical": 4154,
      "mb": 4155,
      "ways": 4156,
      "ĠQ": 4157,
      "Ġile": 4158,
      "onad": 4159,
      "rox": 4160,
      "Ġantic": 4161,
      "Ġanion": 4162,
      "alin": 4163,
      "oll": 4164,
      "Ġactions": 4165,
      "ithin": 4166,
      "Ġconven": 4167,
      "Ġald": 4168,
      "ductase": 4169,
      "ritis": 4170,
      "oxid": 4171,
      "Ġinfl": 4172,
      "Ġunit": 4173,
      "ophage": 4174,
      "Ġweights": 4175,
      "Ġplus": 4176,
      "ounced": 4177,
      "rimin": 4178,
      "Ġsmaller": 4179,
      "proceedings": 4180,
      "Ġreversed": 4181,
      "Ġtract": 4182,
      "ĠAddition": 4183,
      "adily": 4184,
      "Ġexplained": 4185,
      "Ġmonkey": 4186,
      "reptococcus": 4187,
      "arteritis": 4188,
      "Ġdamage": 4189,
      "Ġmammalian": 4190,
      "PG": 4191,
      "arate": 4192,
      "fish": 4193,
      "nucle": 4194,
      "oids": 4195,
      "onst": 4196,
      "icacy": 4197,
      "Ġconsequ": 4198,
      "cele": 4199,
      "Ġisot": 4200,
      "ylcholine": 4201,
      "otoxin": 4202,
      "Ġexis": 4203,
      "agglutin": 4204,
      "Ġenzymic": 4205,
      "aps": 4206,
      "Ġsubstance": 4207,
      "Ġamines": 4208,
      "Ġcarbohyd": 4209,
      "Ġmanif": 4210,
      "Ġnuclei": 4211,
      "Ġimmune": 4212,
      "Ġfibrob": 4213,
      "Ġlysine": 4214,
      "Ġremains": 4215,
      "fluence": 4216,
      "Ġprecipit": 4217,
      "Ġresearch": 4218,
      "ĠPGE": 4219,
      "Ġnicotinamide": 4220,
      "Ġpronounced": 4221,
      "PR": 4222,
      "by": 4223,
      "draw": 4224,
      "iat": 4225,
      "Ġtach": 4226,
      "olet": 4227,
      "osqu": 4228,
      "etry": 4229,
      "ceed": 4230,
      "uronic": 4231,
      "utaneous": 4232,
      "lood": 4233,
      "state": 4234,
      "Ġincidence": 4235,
      "Ġ32": 4236,
      "Ġneon": 4237,
      "Ġtransplantation": 4238,
      "ĠDA": 4239,
      "Ġcoenzyme": 4240,
      "Ġinfer": 4241,
      "Ġexcre": 4242,
      "oglob": 4243,
      "Ġinvolvement": 4244,
      "Ġbehavio": 4245,
      "Ġmixtures": 4246,
      "Ġphosphorylase": 4247,
      "Ġrecovered": 4248,
      "Ġcatecholamine": 4249,
      "Ġfragments": 4250,
      "Ġcriter": 4251,
      "stimulated": 4252,
      "Ġsheep": 4253,
      "Ġfocusing": 4254,
      "hyper": 4255,
      "Ġpneumoniae": 4256,
      "Ġreticulum": 4257,
      "osquit": 4258,
      "]-": 4259,
      "iology": 4260,
      "oked": 4261,
      "Ġsw": 4262,
      "Ġster": 4263,
      "Ġcreat": 4264,
      "Ġwild": 4265,
      "anges": 4266,
      "ula": 4267,
      "Ġthin": 4268,
      "Ġger": 4269,
      "elf": 4270,
      "Ġdiab": 4271,
      "ĠPseudomonas": 4272,
      "Ġtransient": 4273,
      "Ġtransmitter": 4274,
      "Ġrespiration": 4275,
      "istry": 4276,
      "riction": 4277,
      "Ġinfected": 4278,
      "Ġchanged": 4279,
      "Ġartif": 4280,
      "Ġpla": 4281,
      "uscular": 4282,
      "violet": 4283,
      "Ġspectrophot": 4284,
      "Ġmark": 4285,
      "Ġimmunological": 4286,
      "Ġsalts": 4287,
      "Ġperiods": 4288,
      "Ġassayed": 4289,
      "ometry": 4290,
      "Ġattac": 4291,
      "Ġaltern": 4292,
      "Ġprecipitation": 4293,
      "Ġrecipients": 4294,
      "Ġdiminished": 4295,
      "Ġintensity": 4296,
      "Ġcryptorchid": 4297,
      "Ġabolished": 4298,
      "ectiveness": 4299,
      "32": 4300,
      "Ad": 4301,
      "aine": 4302,
      "Ġta": 4303,
      "Ġsaline": 4304,
      "Ġsatis": 4305,
      "Ġsleep": 4306,
      "Ġinoc": 4307,
      "Ġbest": 4308,
      "Ġmaternal": 4309,
      "Ġreas": 4310,
      "omitant": 4311,
      "Ġthird": 4312,
      "Ġlength": 4313,
      "Ġver": 4314,
      "ochem": 4315,
      "ectomized": 4316,
      "irth": 4317,
      "Ġdiethyl": 4318,
      "opaminergic": 4319,
      "Ġadsorption": 4320,
      "Ġadvant": 4321,
      "Ġappropriate": 4322,
      "ĠInc": 4323,
      "Ġcofactor": 4324,
      "Ġusually": 4325,
      "Ġ75": 4326,
      "ĠRh": 4327,
      "Ġpoin": 4328,
      "Ġheme": 4329,
      "Ġglucagon": 4330,
      "onstitu": 4331,
      "Ġepithel": 4332,
      "eroxide": 4333,
      "Ġsympathetic": 4334,
      "Ġphospholipase": 4335,
      "Ġfemale": 4336,
      "Ġinfluenced": 4337,
      "Ġabsorbance": 4338,
      "Ġpepsin": 4339,
      "Ġpredominant": 4340,
      "Ġexperience": 4341,
      "ĠSimilar": 4342,
      "Ġcopper": 4343,
      "operidol": 4344,
      "75": 4345,
      "BL": 4346,
      "Isol": 4347,
      "Let": 4348,
      "af": 4349,
      "iary": 4350,
      "pren": 4351,
      "Ġsera": 4352,
      "Ġpor": 4353,
      "Ġmamm": 4354,
      "Ġegg": 4355,
      "osamin": 4356,
      "ĠTo": 4357,
      "Ġglycerol": 4358,
      "ilateral": 4359,
      "Ġasth": 4360,
      "Ġextensive": 4361,
      "Ġdihydro": 4362,
      "Ġcomplications": 4363,
      "Ġkcal": 4364,
      "Ġseven": 4365,
      "ĠKCl": 4366,
      "rophosphate": 4367,
      "tilis": 4368,
      "Ġoccurring": 4369,
      "Ġspectral": 4370,
      "Ġparticip": 4371,
      "cious": 4372,
      "Ġsolubility": 4373,
      "Ġcannot": 4374,
      "Ġstatistically": 4375,
      "promazine": 4376,
      "Ġspermatozoa": 4377,
      "Letter": 4378,
      "Ġadip": 4379,
      "Ġcm": 4380,
      "Ġfar": 4381,
      "Ġretin": 4382,
      "Ġ26": 4383,
      "Ġ29": 4384,
      "Ġ33": 4385,
      "Ġpretreatment": 4386,
      "oxygen": 4387,
      "oxidation": 4388,
      "Ġintro": 4389,
      "Ġinfar": 4390,
      "Ġphospho": 4391,
      "Ġreached": 4392,
      "Ġdeterg": 4393,
      "Ġright": 4394,
      "Ġopen": 4395,
      "Ġminor": 4396,
      "Ġhemodynamic": 4397,
      "Ġrepe": 4398,
      "ĠUsing": 4399,
      "Ġapproach": 4400,
      "Ġtyros": 4401,
      "Ġdeficiency": 4402,
      "Ġsufficient": 4403,
      "prenolol": 4404,
      "70": 4405,
      "ABA": 4406,
      "carbox": 4407,
      "gi": 4408,
      "psych": 4409,
      "poly": 4410,
      "Ġtrain": 4411,
      "lyl": 4412,
      "lys": 4413,
      "ĠTH": 4414,
      "umed": 4415,
      "Ġdeath": 4416,
      "ode": 4417,
      "odop": 4418,
      "Ġprec": 4419,
      "Ġamine": 4420,
      "Ġarginine": 4421,
      "Ġsample": 4422,
      "Ġinvestigations": 4423,
      "hydroxyp": 4424,
      "Ġstructures": 4425,
      "Ġpulse": 4426,
      "Ġthroughout": 4427,
      "Ġprotons": 4428,
      "Ġperformance": 4429,
      "Ġcarrier": 4430,
      "Ġanalogues": 4431,
      "Ġturnover": 4432,
      "Ġspectroscopy": 4433,
      "Ġcytosol": 4434,
      "Ġhorse": 4435,
      "CH": 4436,
      "On": 4437,
      "aem": 4438,
      "ched": 4439,
      "gal": 4440,
      "oe": 4441,
      "oflavin": 4442,
      "uter": 4443,
      "Ġbar": 4444,
      "anyl": 4445,
      "ident": 4446,
      "Ġet": 4447,
      "Ġaccele": 4448,
      "Ġlob": 4449,
      "elis": 4450,
      "ogram": 4451,
      "Ġencephal": 4452,
      "Ġdialysis": 4453,
      "Ġsubcellular": 4454,
      "Ġanalyzed": 4455,
      "Ġisolation": 4456,
      "Ġoxidative": 4457,
      "Ġcats": 4458,
      "Ġmechan": 4459,
      "Ġrepro": 4460,
      "Ġlocated": 4461,
      "Ġglycine": 4462,
      "ococci": 4463,
      "iminary": 4464,
      "oacet": 4465,
      "Ġpigs": 4466,
      "Ġcarboxylase": 4467,
      "Ġattributed": 4468,
      "Ġavoid": 4469,
      "Ġdefined": 4470,
      "Ġchloroplasts": 4471,
      "Ġanxiety": 4472,
      "Ġsynthesized": 4473,
      "Ġdinucleotide": 4474,
      "Ġvarying": 4475,
      "Ġhydrophobic": 4476,
      "Ġinterferon": 4477,
      "jection": 4478,
      "lus": 4479,
      "Ġaround": 4480,
      "Ġsil": 4481,
      "rous": 4482,
      "Ġdys": 4483,
      "Ġdark": 4484,
      "educ": 4485,
      "Ġfructose": 4486,
      "aria": 4487,
      "ectivity": 4488,
      "Ġreadily": 4489,
      "phasic": 4490,
      "urine": 4491,
      "Ġproved": 4492,
      "Ġefficacy": 4493,
      "Ġinfections": 4494,
      "Ġlitera": 4495,
      "ographic": 4496,
      "atures": 4497,
      "Ġcentrifugation": 4498,
      "Ġreducing": 4499,
      "dominal": 4500,
      "Ġbecame": 4501,
      "Ġobservation": 4502,
      "Ġnodosa": 4503,
      "Ġgreatly": 4504,
      "Ġearli": 4505,
      "Ġphosphodiesterase": 4506,
      "hypertensive": 4507,
      "Ġliterature": 4508,
      "DH": 4509,
      "MR": 4510,
      "Res": 4511,
      "cyc": 4512,
      "ga": 4513,
      "sh": 4514,
      "onin": 4515,
      "onyl": 4516,
      "Ġsn": 4517,
      "Ġbirth": 4518,
      "orb": 4519,
      "Ġful": 4520,
      "olamine": 4521,
      "ational": 4522,
      "Ġwithdraw": 4523,
      "Ġdext": 4524,
      "Ġallo": 4525,
      "ĠCu": 4526,
      "icha": 4527,
      "ressor": 4528,
      "ryptamine": 4529,
      "Ġrecogn": 4530,
      "Ġproduces": 4531,
      "Ġdiscrimin": 4532,
      "ĠVmax": 4533,
      "rotein": 4534,
      "Ġrequires": 4535,
      "Ġgenetic": 4536,
      "Ġlysosomes": 4537,
      "Ġslowly": 4538,
      "Ġdenaturation": 4539,
      "blocking": 4540,
      "Ġprogram": 4541,
      "Ġprogressive": 4542,
      "Ġgranules": 4543,
      "Ġconsiderable": 4544,
      "Ġinduce": 4545,
      "Ġalkalosis": 4546,
      "Ġsources": 4547,
      "Ġcathepsin": 4548,
      "ĠZn": 4549,
      "racycline": 4550,
      "Ġvessels": 4551,
      "++": 4552,
      "We": 4553,
      "rug": 4554,
      "Ġphe": 4555,
      "Ġpen": 4556,
      "Ġpain": 4557,
      "ĠcAMP": 4558,
      "rably": 4559,
      "Ġantid": 4560,
      "ising": 4561,
      "Ġmother": 4562,
      "inetics": 4563,
      "inephrine": 4564,
      "omotor": 4565,
      "Ġlactic": 4566,
      "Ġ(-": 4567,
      "stable": 4568,
      "ĠIV": 4569,
      "Ġactivator": 4570,
      "Ġdioxide": 4571,
      "ĠSer": 4572,
      "lude": 4573,
      "Ġoxy": 4574,
      "Ġproteinase": 4575,
      "Ġampl": 4576,
      "Ġcyclo": 4577,
      "Ġmanner": 4578,
      "Ġdifferential": 4579,
      "Ġesters": 4580,
      "cholate": 4581,
      "Ġexpected": 4582,
      "Ġlipids": 4583,
      "Ġisoenzymes": 4584,
      "Ġratios": 4585,
      "Ġpeaks": 4586,
      "Ġthymus": 4587,
      "Ġlikely": 4588,
      "Ġantibiotic": 4589,
      "Ġmumol": 4590,
      "Ġsuccinate": 4591,
      "delta": 4592,
      "Ġspecifically": 4593,
      "CB": 4594,
      "Some": 4595,
      "ste": 4596,
      "sulph": 4597,
      "Ġer": 4598,
      "Ġten": 4599,
      "enol": 4600,
      "Ġpal": 4601,
      "Ġclo": 4602,
      "ras": 4603,
      "istic": 4604,
      "ann": 4605,
      "osome": 4606,
      "Ġng": 4607,
      "Ġdev": 4608,
      "Ġraised": 4609,
      "Ġreser": 4610,
      "ĠIf": 4611,
      "ĠIm": 4612,
      "Ġeffectiveness": 4613,
      "Ġincluded": 4614,
      "adder": 4615,
      "izes": 4616,
      "Ġ36": 4617,
      "ĠSp": 4618,
      "isting": 4619,
      "othane": 4620,
      "othiaz": 4621,
      "Ġuns": 4622,
      "Ġunaff": 4623,
      "Ġmethionine": 4624,
      "ĠGMP": 4625,
      "Ġserine": 4626,
      "Ġplay": 4627,
      "def": 4628,
      "Ġregulatory": 4629,
      "nalysis": 4630,
      "Ġtestes": 4631,
      "Ġtesticular": 4632,
      "activation": 4633,
      "Ġchromatographic": 4634,
      "Ġpotentials": 4635,
      "Ġexamination": 4636,
      "Ġiniti": 4637,
      "ĠStreptococcus": 4638,
      "Ġconsiderably": 4639,
      "Ġsynaptic": 4640,
      "chloro": 4641,
      "riton": 4642,
      "Ġaccount": 4643,
      "Ġorganisms": 4644,
      "Ġdecarboxylase": 4645,
      "Ġrepeated": 4646,
      "ichaelis": 4647,
      "Ġunaffected": 4648,
      "Di": 4649,
      "NP": 4650,
      "merc": 4651,
      "ou": 4652,
      "onse": 4653,
      "alc": 4654,
      "Ġmosquit": 4655,
      "ido": 4656,
      "ĠTriton": 4657,
      "omas": 4658,
      "elective": 4659,
      "rant": 4660,
      "Ġenti": 4661,
      "ĠCD": 4662,
      "ĠCell": 4663,
      "racent": 4664,
      "Ġadsorb": 4665,
      "ĠPO": 4666,
      "Ġhen": 4667,
      "Ġpredic": 4668,
      "oreductase": 4669,
      "Ġneither": 4670,
      "Ġtransform": 4671,
      "Ġtransformation": 4672,
      "rophen": 4673,
      "Ġdegra": 4674,
      "Ġcomplement": 4675,
      "obut": 4676,
      "Ġmonitor": 4677,
      "Ġyear": 4678,
      "Ġoperation": 4679,
      "oxybenz": 4680,
      "atured": 4681,
      "Ġorgans": 4682,
      "Ġcasein": 4683,
      "Ġsoil": 4684,
      "Ġferric": 4685,
      "Ġpathways": 4686,
      "Ġutilization": 4687,
      "Ġcharged": 4688,
      "Ġthiol": 4689,
      "Ġovari": 4690,
      "Ġultraviolet": 4691,
      "ynaptic": 4692,
      "orphyrin": 4693,
      "Ġileum": 4694,
      "Ġexistence": 4695,
      "rone": 4696,
      "Ġaort": 4697,
      "Ġsens": 4698,
      "Ġpure": 4699,
      "Ġben": 4700,
      "ĠmV": 4701,
      "atum": 4702,
      "unit": 4703,
      "iform": 4704,
      "ĠIts": 4705,
      "ĠCo": 4706,
      "ope": 4707,
      "lue": 4708,
      "Ġconcomitant": 4709,
      "Ġshor": 4710,
      "rence": 4711,
      "ycardi": 4712,
      "ortality": 4713,
      "Ġamn": 4714,
      "Ġdepressed": 4715,
      "Ġsubstanti": 4716,
      "Ġpolar": 4717,
      "ensitization": 4718,
      "Ġaccu": 4719,
      "Ġconscious": 4720,
      "Ġequivalent": 4721,
      "tyrosine": 4722,
      "mitters": 4723,
      "arative": 4724,
      "Ġappearance": 4725,
      "Ġweek": 4726,
      "Ġfeatures": 4727,
      "Ġsecretory": 4728,
      "Ġsuspension": 4729,
      "Ġalteration": 4730,
      "Ġconduct": 4731,
      "Ġcrystall": 4732,
      "Ġimmediate": 4733,
      "Ġpolypeptide": 4734,
      "Ġrelaxation": 4735,
      "Ġextreme": 4736,
      "Ġcriteria": 4737,
      "02": 4738,
      "CA": 4739,
      "cNAc": 4740,
      "ius": 4741,
      "motic": 4742,
      "nitro": 4743,
      "Ġopp": 4744,
      "Ġceph": 4745,
      "ales": 4746,
      "Ġelas": 4747,
      "Ġthrom": 4748,
      "tern": 4749,
      "uric": 4750,
      "Ġisomer": 4751,
      "loro": 4752,
      "ĠAm": 4753,
      "Ġalong": 4754,
      "ymethyl": 4755,
      "ector": 4756,
      "ured": 4757,
      "Ġefficiency": 4758,
      "Ġobstruc": 4759,
      "ĠBo": 4760,
      "Ġreactive": 4761,
      "Ġcancer": 4762,
      "Ġmyosin": 4763,
      "Ġbuffers": 4764,
      "Ġepinephrine": 4765,
      "factory": 4766,
      "Ġparas": 4767,
      "Ġsuccessful": 4768,
      "opropyl": 4769,
      "Ġrisk": 4770,
      "Ġdisappe": 4771,
      "Ġdetail": 4772,
      "Ġcarbohydrate": 4773,
      "Ġearlier": 4774,
      "eas": 4775,
      "mented": 4776,
      "Ġher": 4777,
      "reci": 4778,
      "icine": 4779,
      "Ġactin": 4780,
      "ithi": 4781,
      "imetic": 4782,
      "Ġisoprenaline": 4783,
      "iles": 4784,
      "Ġstages": 4785,
      "ysiological": 4786,
      "Ġefficient": 4787,
      "Ġhep": 4788,
      "Ġnearly": 4789,
      "rolol": 4790,
      "Ġdepending": 4791,
      "Ġlabel": 4792,
      "ervation": 4793,
      "Ġflav": 4794,
      "Ġlocalized": 4795,
      "Ġchloro": 4796,
      "Ġfeeding": 4797,
      "Ġimprovement": 4798,
      "Ġplatelets": 4799,
      "Ġreceiving": 4800,
      "Ġdigestion": 4801,
      "Ġbilateral": 4802,
      "Ġmonoamine": 4803,
      "verall": 4804,
      "Ġtransmission": 4805,
      "ĠSalmon": 4806,
      "Isolation": 4807,
      "went": 4808,
      "Ġ:": 4809,
      "inyl": 4810,
      "Ġslic": 4811,
      "asing": 4812,
      "Ġmild": 4813,
      "Ġmortality": 4814,
      "ering": 4815,
      "aric": 4816,
      "lying": 4817,
      "Ġled": 4818,
      "romes": 4819,
      "ilis": 4820,
      "Ġstain": 4821,
      "ocyt": 4822,
      "Ġrad": 4823,
      "ophen": 4824,
      "Ġspinal": 4825,
      "ĠStudies": 4826,
      "Ġsubc": 4827,
      "Ġsubtilis": 4828,
      "ĠMA": 4829,
      "ĠMichaelis": 4830,
      "ĠDe": 4831,
      "ĠDi": 4832,
      "Ġsea": 4833,
      "hydrolase": 4834,
      "ropine": 4835,
      "Ġantihypertensive": 4836,
      "coup": 4837,
      "Ġitself": 4838,
      "rophic": 4839,
      "Ġglucuron": 4840,
      "Ġreconstitu": 4841,
      "Ġpotency": 4842,
      "Influence": 4843,
      "Ġhydrolyzed": 4844,
      "Ġhaloperidol": 4845,
      "Ġanesthetized": 4846,
      "Ġdonors": 4847,
      "Ġyields": 4848,
      "Ġlink": 4849,
      "Ġelimination": 4850,
      "Ġsalicylate": 4851,
      "Ġinterpreted": 4852,
      "Ġimmobilized": 4853,
      "ycardia": 4854,
      "+)-": 4855,
      "Nase": 4856,
      "Two": 4857,
      "vascular": 4858,
      "wise": 4859,
      "inus": 4860,
      "Ġpub": 4861,
      "itin": 4862,
      "Ġdopaminergic": 4863,
      "anding": 4864,
      "olym": 4865,
      "idity": 4866,
      "Ġnow": 4867,
      "Ġforce": 4868,
      "Ġalways": 4869,
      "Ġsuitable": 4870,
      "ypeptidase": 4871,
      "raldehyde": 4872,
      "Ġphage": 4873,
      "oxyp": 4874,
      "Ġleuc": 4875,
      "Ġappreci": 4876,
      "amination": 4877,
      "ception": 4878,
      "Ġpoor": 4879,
      "Ġhemorrh": 4880,
      "associ": 4881,
      "Ġquality": 4882,
      "Ġphenobarbital": 4883,
      "ocyan": 4884,
      "Ġmicroscopy": 4885,
      "Ġhypertensive": 4886,
      "vided": 4887,
      "Ġhistone": 4888,
      "Ġfractionation": 4889,
      "Ġreduce": 4890,
      "Ġsubject": 4891,
      "Ġclearance": 4892,
      "Ġcollected": 4893,
      "Ġthermal": 4894,
      "Ġcorrespond": 4895,
      "Ġultracent": 4896,
      "terminal": 4897,
      "Ġfacil": 4898,
      "oglut": 4899,
      "Ġmobility": 4900,
      "Ġmovement": 4901,
      "Ġenhancement": 4902,
      "Ġelicited": 4903,
      "Ġadipose": 4904,
      "Con": 4905,
      "Int": 4906,
      "MA": 4907,
      "Treatment": 4908,
      "brom": 4909,
      "glycerol": 4910,
      "nary": 4911,
      "sal": 4912,
      "uran": 4913,
      "ze": 4914,
      "Ġec": 4915,
      "inally": 4916,
      "Ġapo": 4917,
      "Ġtran": 4918,
      "hept": 4919,
      "Ġoverall": 4920,
      "Ġportion": 4921,
      "Ġcysteine": 4922,
      "Ġbac": 4923,
      "Ġbands": 4924,
      "ico": 4925,
      "inger": 4926,
      "Ġether": 4927,
      "osamine": 4928,
      "ĠTreatment": 4929,
      "terior": 4930,
      "umably": 4931,
      "urg": 4932,
      "ducing": 4933,
      "Ġcomposed": 4934,
      "Ġ38": 4935,
      "Ġprem": 4936,
      "genic": 4937,
      "Ġintram": 4938,
      "aryn": 4939,
      "Ġ65": 4940,
      "ophore": 4941,
      "Ġinhibiting": 4942,
      "embrane": 4943,
      "deg": 4944,
      "Ġimmunos": 4945,
      "Ġgastrin": 4946,
      "Ġjud": 4947,
      "Ġhalothane": 4948,
      "Ġflavin": 4949,
      "Ġidentification": 4950,
      "Ġlocalization": 4951,
      "Ġresting": 4952,
      "Ġdiagnostic": 4953,
      "otherapy": 4954,
      "olarization": 4955,
      "Ġtumors": 4956,
      "Ġintermediates": 4957,
      "Ġaffecting": 4958,
      "Ġlinked": 4959,
      "Ġnormally": 4960,
      "Ġhomogeneity": 4961,
      "Ġagonists": 4962,
      "Ġneuroleptics": 4963,
      "Ġphenomenon": 4964,
      "testinal": 4965,
      "Ġtriglycer": 4966,
      "Ġphysician": 4967,
      "Ġyielded": 4968,
      "Ġinsufficiency": 4969,
      "38": 4970,
      "Reg": 4971,
      "dis": 4972,
      "jun": 4973,
      "now": 4974,
      "zing": 4975,
      "zine": 4976,
      "Ġtable": 4977,
      "ision": 4978,
      "osts": 4979,
      "Ġnal": 4980,
      "Ġthyroid": 4981,
      "Ġgive": 4982,
      "Ġproximal": 4983,
      "Ġexam": 4984,
      "ables": 4985,
      "ract": 4986,
      "ethanol": 4987,
      "Ġ55": 4988,
      "Ġkill": 4989,
      "Ġglands": 4990,
      "Ġuntil": 4991,
      "Ġindex": 4992,
      "azol": 4993,
      "Ġvariable": 4994,
      "Ġbiphasic": 4995,
      "Ġhypercap": 4996,
      "Ġmode": 4997,
      "Ġmucosal": 4998,
      "mitted": 4999,
      "Ġvolun": 5000,
      "Ġslower": 5001,
      "Ġexhibit": 5002,
      "Ġribonuclease": 5003,
      "Ġgradients": 5004,
      "buty": 5005,
      "Ġproblem": 5006,
      "Ġterminal": 5007,
      "Ġbromide": 5008,
      "reshold": 5009,
      "37": 5010,
      "Hg": 5011,
      "Hydro": 5012,
      "NS": 5013,
      "dents": 5014,
      "group": 5015,
      "tra": 5016,
      "vals": 5017,
      "Ġtrim": 5018,
      "rex": 5019,
      "Ġanhyd": 5020,
      "Ġfell": 5021,
      "ats": 5022,
      "veolar": 5023,
      "erent": 5024,
      "oconst": 5025,
      "Ġefflux": 5026,
      "Ġadults": 5027,
      "ept": 5028,
      "Ġ300": 5029,
      "ĠPi": 5030,
      "Ġpap": 5031,
      "Ġpersis": 5032,
      "lases": 5033,
      "Ġagre": 5034,
      "Ġuntreated": 5035,
      "Ġmethanol": 5036,
      "Ġassign": 5037,
      "Ġcanine": 5038,
      "Ġmann": 5039,
      "hydroxylase": 5040,
      "ferred": 5041,
      "hydryl": 5042,
      "Ġlymphoid": 5043,
      "molec": 5044,
      "Ġvenom": 5045,
      "Ġfrequently": 5046,
      "Ġprofile": 5047,
      "Ġreagent": 5048,
      "Ġclosely": 5049,
      "Ġedema": 5050,
      "Ġsimultaneous": 5051,
      "Ġdisturbances": 5052,
      "Ġundergo": 5053,
      "Ġpolysaccharide": 5054,
      "Ġhybrid": 5055,
      "Ġgrafts": 5056,
      "ophylline": 5057,
      "Ġgermin": 5058,
      "Ġporcine": 5059,
      "lusive": 5060,
      "Ġwithdrawal": 5061,
      "Ġradical": 5062,
      "..": 5063,
      "Bi": 5064,
      "nic": 5065,
      "vents": 5066,
      "inhib": 5067,
      "Ġoct": 5068,
      "Ġsum": 5069,
      "raft": 5070,
      "rod": 5071,
      "asp": 5072,
      "Ġdri": 5073,
      "Ġmotor": 5074,
      "Ġfresh": 5075,
      "oster": 5076,
      "ostero": 5077,
      "otomy": 5078,
      "ĠAp": 5079,
      "Ġdip": 5080,
      "ntolamine": 5081,
      "opic": 5082,
      "Ġwhose": 5083,
      "Ġ34": 5084,
      "Ġ500": 5085,
      "ipramine": 5086,
      "Ġabdominal": 5087,
      "erating": 5088,
      "ignific": 5089,
      "Ġhydrolase": 5090,
      "ĠRe": 5091,
      "ĠOf": 5092,
      "Ġintervals": 5093,
      "assay": 5094,
      "Ġparticle": 5095,
      "Ġnumbers": 5096,
      "inesterase": 5097,
      "exchange": 5098,
      "Ġbecomes": 5099,
      "Ġstimulus": 5100,
      "Ġstimulating": 5101,
      "response": 5102,
      "Ġmicrob": 5103,
      "Ġchlorpromazine": 5104,
      "ĠTherefore": 5105,
      "Ġexhibits": 5106,
      "Ġelevation": 5107,
      "Ġstriatal": 5108,
      "Ġmotility": 5109,
      "Ġperoxidase": 5110,
      "Ġbronchial": 5111,
      "Ġrequirements": 5112,
      "Ġassessed": 5113,
      "Ġcomparative": 5114,
      "Ġcritical": 5115,
      "This": 5116,
      "Ġmanifest": 5117,
      "Ġfully": 5118,
      "oxybenzamine": 5119,
      "ĠSalmonella": 5120,
      "+/": 5121,
      "As": 5122,
      "eak": 5123,
      "uated": 5124,
      "teb": 5125,
      "teen": 5126,
      "Ġpel": 5127,
      "Ġway": 5128,
      "Ġfinal": 5129,
      "olute": 5130,
      "idate": 5131,
      "oses": 5132,
      "osides": 5133,
      "etus": 5134,
      "omat": 5135,
      "Ġlines": 5136,
      "Ġglass": 5137,
      "Ġconcept": 5138,
      "ĠApp": 5139,
      "urea": 5140,
      "uretic": 5141,
      "Ġcompe": 5142,
      "ĠNA": 5143,
      "ĠMa": 5144,
      "Ġpresumably": 5145,
      "tually": 5146,
      "ĠLe": 5147,
      "Ġcord": 5148,
      "ĠGABA": 5149,
      "Ġplant": 5150,
      "sibly": 5151,
      "rophy": 5152,
      "ensitivity": 5153,
      "Ġcalf": 5154,
      "Ġsomewh": 5155,
      "enzoate": 5156,
      "Ġinfluenz": 5157,
      "Ġsupple": 5158,
      "Ġinvolves": 5159,
      "Ġsulfhydryl": 5160,
      "Ġglycogen": 5161,
      "Ġ196": 5162,
      "ituitary": 5163,
      "Ġantagonized": 5164,
      "Ġtrue": 5165,
      "Ġgenerally": 5166,
      "Ġviral": 5167,
      "Ġpractice": 5168,
      "galactosidase": 5169,
      "Ġcoupled": 5170,
      "Ġoligos": 5171,
      "Ġanalgesics": 5172,
      "Ġimmediately": 5173,
      "Ġneurotransmitter": 5174,
      "Ġcytoplasmic": 5175,
      "Ġpower": 5176,
      "Ġemployed": 5177,
      "Ġsuperoxide": 5178,
      "Ġplaque": 5179,
      "Ġasthma": 5180,
      "psychotic": 5181,
      "Ġreserpine": 5182,
      "molecular": 5183,
      "Ġsomewhat": 5184,
      "%),": 5185,
      "):": 5186,
      "03": 5187,
      "Ox": 5188,
      "Pre": 5189,
      "eros": 5190,
      "ier": 5191,
      "life": 5192,
      "pite": 5193,
      "toxin": 5194,
      "asis": 5195,
      "Ġmig": 5196,
      "ergen": 5197,
      "arp": 5198,
      "arts": 5199,
      "osid": 5200,
      "osulf": 5201,
      "phase": 5202,
      "ocrine": 5203,
      "Ġascor": 5204,
      "stran": 5205,
      "Ġexten": 5206,
      "irub": 5207,
      "Ġdisulf": 5208,
      "Ġcellulose": 5209,
      "time": 5210,
      "Ġintake": 5211,
      "Ġcoag": 5212,
      "roline": 5213,
      "Ġdiffered": 5214,
      "Ġagglutin": 5215,
      "Ġspecimens": 5216,
      "ĠFe": 5217,
      "Ġsigns": 5218,
      "ĠWh": 5219,
      "Ġdetermining": 5220,
      "hydroxyt": 5221,
      "Ġviruses": 5222,
      "Ġaspartate": 5223,
      "othermia": 5224,
      "Ġshifts": 5225,
      "Ġintravenously": 5226,
      "Ġnerves": 5227,
      "Ġsuspensions": 5228,
      "Ġplacental": 5229,
      "Ġpassive": 5230,
      "Ġtraum": 5231,
      "itoneal": 5232,
      "Ġpoints": 5233,
      "Ġtyrosyl": 5234,
      "IF": 5235,
      "function": 5236,
      "inine": 5237,
      "inated": 5238,
      "Ġtre": 5239,
      "rected": 5240,
      "ential": 5241,
      "Ġpic": 5242,
      "Ġinn": 5243,
      "Ġintensive": 5244,
      "Ġanions": 5245,
      "esc": 5246,
      "ison": 5247,
      "Ġdom": 5248,
      "orim": 5249,
      "Ġfrac": 5250,
      "Ġfaster": 5251,
      "Ġey": 5252,
      "Ġlib": 5253,
      "Ġglob": 5254,
      "dihydro": 5255,
      "resistant": 5256,
      "ocitrate": 5257,
      "Ġdivided": 5258,
      "elling": 5259,
      "opeptidase": 5260,
      "epress": 5261,
      "Ġdisp": 5262,
      "iae": 5263,
      "Ġwhite": 5264,
      "osphor": 5265,
      "Ġconclude": 5266,
      "erative": 5267,
      "ĠEvidence": 5268,
      "ADP": 5269,
      "Ġlysis": 5270,
      "tingu": 5271,
      "Ġfolate": 5272,
      "Ġphenothiaz": 5273,
      "Ġnucleoside": 5274,
      "Ġselected": 5275,
      "Ġabsolute": 5276,
      "Ġclear": 5277,
      "onucleic": 5278,
      "ĠOnly": 5279,
      "Ġpolymerase": 5280,
      "iferation": 5281,
      "Ġanalogs": 5282,
      "Ġphospholipid": 5283,
      "ATPase": 5284,
      "Ġaccounted": 5285,
      "Ġdeoxyrib": 5286,
      "NADP": 5287,
      "Ġantibiotics": 5288,
      "Ġulcer": 5289,
      "Ġconcerning": 5290,
      "ĠACTH": 5291,
      "Ġirreversible": 5292,
      "Ġmedulla": 5293,
      "ophageal": 5294,
      "oacetate": 5295,
      "ĠBohr": 5296,
      "Clinical": 5297,
      "GF": 5298,
      "GTP": 5299,
      "HC": 5300,
      "SS": 5301,
      "known": 5302,
      "pon": 5303,
      "intestinal": 5304,
      "onomic": 5305,
      "Ġbreat": 5306,
      "rane": 5307,
      "Ġchymotrypsin": 5308,
      "sem": 5309,
      "thi": 5310,
      "Ġeffectively": 5311,
      "opy": 5312,
      "Ġspace": 5313,
      "Ġdistal": 5314,
      "Ġdistingu": 5315,
      "Ġcontractions": 5316,
      "Ġneph": 5317,
      "Ġintrac": 5318,
      "Ġimidazole": 5319,
      "Ġseiz": 5320,
      "Ġmeal": 5321,
      "Ġoxal": 5322,
      "ostrid": 5323,
      "Ġunilateral": 5324,
      "ĠOther": 5325,
      "Ġothers": 5326,
      "Ġsurve": 5327,
      "Inte": 5328,
      "Inhibition": 5329,
      "Ġoptima": 5330,
      "Ġcapillary": 5331,
      "Ġtyph": 5332,
      "Ġproliferation": 5333,
      "glucosidase": 5334,
      "Ġreflex": 5335,
      "Ġanaerobic": 5336,
      "ĠAcid": 5337,
      "gina": 5338,
      "Ġligands": 5339,
      "Ġdimethyl": 5340,
      "axis": 5341,
      "labelled": 5342,
      "Ġvasodil": 5343,
      "blockers": 5344,
      "Ġdye": 5345,
      "Ġrequirement": 5346,
      "Ġprofiles": 5347,
      "Ġsolubilized": 5348,
      "pyruvate": 5349,
      "Ġneuronal": 5350,
      "Ġganglion": 5351,
      "geneic": 5352,
      "Ġconjugates": 5353,
      "Ġfixation": 5354,
      "Ġrecomm": 5355,
      "Ġanalyses": 5356,
      "ĠMoreover": 5357,
      "Ġfibroblasts": 5358,
      "Ar": 5359,
      "EG": 5360,
      "Gly": 5361,
      "NE": 5362,
      "ptim": 5363,
      "tochrome": 5364,
      "Ġow": 5365,
      "Ġinotropic": 5366,
      "rotid": 5367,
      "asal": 5368,
      "Ġback": 5369,
      "Ġeti": 5370,
      "Ġnmol": 5371,
      "omimetic": 5372,
      "Ġthreshold": 5373,
      "ursing": 5374,
      "Ġprogn": 5375,
      "rang": 5376,
      "ranial": 5377,
      "Ġalveolar": 5378,
      "Ġexists": 5379,
      "seud": 5380,
      "thyl": 5381,
      "Ġadequ": 5382,
      "Ġheav": 5383,
      "Ġ54": 5384,
      "lasmic": 5385,
      "Ġproteases": 5386,
      "Ġ42": 5387,
      "monophosphate": 5388,
      "Ġagar": 5389,
      "Ġdry": 5390,
      "Ġcortis": 5391,
      "Ġassays": 5392,
      "alled": 5393,
      "ilep": 5394,
      "Ġisolates": 5395,
      "ventil": 5396,
      "aracterization": 5397,
      "ovirus": 5398,
      "Ġproducing": 5399,
      "Ġtypical": 5400,
      "Ġsupply": 5401,
      "Ġmyel": 5402,
      "Ġisoenzyme": 5403,
      "point": 5404,
      "Ġtetram": 5405,
      "Ġprimarily": 5406,
      "atible": 5407,
      "Ġstriatum": 5408,
      "Ġhaemoglobin": 5409,
      "Ġphospholipids": 5410,
      "Ġpentobarbital": 5411,
      "Ġnicotine": 5412,
      "Ġfibrinogen": 5413,
      "Ġagonist": 5414,
      "Ġneurotransmitters": 5415,
      "olysin": 5416,
      "quinone": 5417,
      "Ġprecurs": 5418,
      "Ġduodenal": 5419,
      "Ġconverted": 5420,
      "Ġischemic": 5421,
      "Ġpenet": 5422,
      "Ġaorta": 5423,
      "Ġconductance": 5424,
      "Ġfacilit": 5425,
      "90": 5426,
      "Elect": 5427,
      "MN": 5428,
      "au": 5429,
      "flow": 5430,
      "itic": 5431,
      "lished": 5432,
      "mias": 5433,
      "ride": 5434,
      "ster": 5435,
      "yb": 5436,
      "ylyl": 5437,
      "reon": 5438,
      "roc": 5439,
      "Ġbul": 5440,
      "Ġbarb": 5441,
      "Ġblue": 5442,
      "anted": 5443,
      "Ġretained": 5444,
      "atases": 5445,
      "Ġemph": 5446,
      "ometh": 5447,
      "omatic": 5448,
      "Ġthyro": 5449,
      "activity": 5450,
      "Ġgases": 5451,
      "ameth": 5452,
      "otyp": 5453,
      "Ġ150": 5454,
      "Ġcho": 5455,
      "abain": 5456,
      "Ġorth": 5457,
      "ellar": 5458,
      "Ġspi": 5459,
      "ĠSc": 5460,
      "ensis": 5461,
      "Ġshowing": 5462,
      "wee": 5463,
      "Ġsole": 5464,
      "echanism": 5465,
      "Ġmolar": 5466,
      "Ġrespons": 5467,
      "Ġrecent": 5468,
      "Ġranging": 5469,
      "Ġimmunity": 5470,
      "Ġstere": 5471,
      "activated": 5472,
      "Ġcatalase": 5473,
      "Ġbacteri": 5474,
      "Ġhydroxyl": 5475,
      "Ġscre": 5476,
      "Ġsubjected": 5477,
      "ontinu": 5478,
      "Ġcholinergic": 5479,
      "Ġbecome": 5480,
      "Ġrefl": 5481,
      "Ġkidneys": 5482,
      "DPG": 5483,
      "Ġaccumulated": 5484,
      "Ġlactose": 5485,
      "Ġmorphological": 5486,
      "Ġtetra": 5487,
      "Ġsuperior": 5488,
      "Ġpolymorph": 5489,
      "Ġgenerated": 5490,
      "Ġvein": 5491,
      "Ġestablish": 5492,
      "Ġdynamic": 5493,
      "sulfatase": 5494,
      "Ġbinds": 5495,
      "ĠmmHg": 5496,
      "Ġproportional": 5497,
      "Ġneurones": 5498,
      "nitrophenyl": 5499,
      "Ġneuroleptic": 5500,
      "ĠResults": 5501,
      "Ġfoot": 5502,
      "Ġelution": 5503,
      "Ġprecursor": 5504,
      "Ġdepletion": 5505,
      "Ġconventional": 5506,
      "Ġbehavioral": 5507,
      "Ġmarker": 5508,
      "ochemistry": 5509,
      "Ġreproduc": 5510,
      "Ġslices": 5511,
      "oglutarate": 5512,
      "Ġvolunte": 5513,
      "Ġprecursors": 5514,
      "+)": 5515,
      "33": 5516,
      "Km": 5517,
      "Ne": 5518,
      "SD": 5519,
      "Trans": 5520,
      "catal": 5521,
      "ders": 5522,
      "ipp": 5523,
      "lam": 5524,
      "orac": 5525,
      "sion": 5526,
      "vol": 5527,
      "Ġauthor": 5528,
      "tious": 5529,
      "Ġslop": 5530,
      "ror": 5531,
      "Ġfam": 5532,
      "olase": 5533,
      "osystem": 5534,
      "ositol": 5535,
      "ulmonary": 5536,
      "omorphine": 5537,
      "acin": 5538,
      "action": 5539,
      "Ġlost": 5540,
      "ithine": 5541,
      "ĠTheir": 5542,
      "amycin": 5543,
      "Ġprom": 5544,
      "lora": 5545,
      "Ġdehyd": 5546,
      "Ġatom": 5547,
      "opsy": 5548,
      "chain": 5549,
      "ĠSch": 5550,
      "ĠSta": 5551,
      "ĠPR": 5552,
      "perties": 5553,
      "Ġprotec": 5554,
      "Ġknow": 5555,
      "Ġformer": 5556,
      "Ġdecomp": 5557,
      "Ġaged": 5558,
      "astrin": 5559,
      "pati": 5560,
      "ĠLi": 5561,
      "Ġarrhyth": 5562,
      "Ġevoked": 5563,
      "Ġquestion": 5564,
      "Ġphenoxybenzamine": 5565,
      "Ġimmuno": 5566,
      "Ġhydroxylation": 5567,
      "Ġfibr": 5568,
      "Ġfibers": 5569,
      "glucuron": 5570,
      "rown": 5571,
      "Ġdietary": 5572,
      "Ġdiges": 5573,
      "Ġprovides": 5574,
      "Ġzinc": 5575,
      "acetate": 5576,
      "Ġminimum": 5577,
      "Ġcontractile": 5578,
      "Ġchicken": 5579,
      "Ġpercentage": 5580,
      "ĠSepharose": 5581,
      "ifferen": 5582,
      "Ġplots": 5583,
      "Ġimpaired": 5584,
      "Ġpreferen": 5585,
      "Ġuterine": 5586,
      "Ġdifficult": 5587,
      "Ġneonatal": 5588,
      "oglobulin": 5589,
      "Ġartificial": 5590,
      "Ġmonitoring": 5591,
      "Ġhypercapnia": 5592,
      "Ġagreement": 5593,
      "irubin": 5594,
      "55": 5595,
      "Human": 5596,
      "PD": 5597,
      "uation": 5598,
      "Ġtake": 5599,
      "Ġstem": 5600,
      "Ġcenter": 5601,
      "Ġangina": 5602,
      "aste": 5603,
      "asparag": 5604,
      "Ġbran": 5605,
      "ida": 5606,
      "Ġhum": 5607,
      "aces": 5608,
      "Ġlac": 5609,
      "Ġlayer": 5610,
      "Ġgonad": 5611,
      "amylase": 5612,
      "amphetamine": 5613,
      "utine": 5614,
      "Ġsto": 5615,
      "ĠAb": 5616,
      "ĠAg": 5617,
      "strate": 5618,
      "Ġcompeti": 5619,
      "oprolol": 5620,
      "ĠNew": 5621,
      "Ġhead": 5622,
      "Ġpreced": 5623,
      "oxyc": 5624,
      "Ġperm": 5625,
      "ĠMic": 5626,
      "Ġpressor": 5627,
      "tention": 5628,
      "renergic": 5629,
      "Ġobj": 5630,
      "ĠHC": 5631,
      "ĠInhibition": 5632,
      "Ġuncoup": 5633,
      "Ġsignal": 5634,
      "Ġdepress": 5635,
      "aza": 5636,
      "Ġrub": 5637,
      "Ġhemolysis": 5638,
      "Ġoccurrence": 5639,
      "Ġgrowing": 5640,
      "Ġranged": 5641,
      "Ġsuppressed": 5642,
      "Ġcatalysis": 5643,
      "Ġhydroxy": 5644,
      "Ġcholine": 5645,
      "Ġreflect": 5646,
      "Ġfluorescent": 5647,
      "Ġpostoperative": 5648,
      "Ġmajority": 5649,
      "Ġpartly": 5650,
      "Ġconsists": 5651,
      "Ġguanidine": 5652,
      "stituted": 5653,
      "Ġmening": 5654,
      "Ġoriginal": 5655,
      "ovalent": 5656,
      "Ġpopulations": 5657,
      "Ġcyanide": 5658,
      "Ġbonds": 5659,
      "Ġepiderm": 5660,
      "Comparative": 5661,
      "ratus": 5662,
      "Ġrecombin": 5663,
      "oglycan": 5664,
      "limiting": 5665,
      "periments": 5666,
      "rospinal": 5667,
      "iatric": 5668,
      "lysine": 5669,
      "Ġmechanical": 5670,
      "Ġantidepress": 5671,
      "deficient": 5672,
      "Ġimmunosupp": 5673,
      "Ġjudged": 5674,
      "%).": 5675,
      "500": 5676,
      "bis": 5677,
      "come": 5678,
      "iella": 5679,
      "layer": 5680,
      "oassay": 5681,
      "rically": 5682,
      "uanti": 5683,
      "Ġtol": 5684,
      "Ġsial": 5685,
      "Ġpituitary": 5686,
      "Ġche": 5687,
      "Ġbis": 5688,
      "Ġbene": 5689,
      "Ġdib": 5690,
      "icillin": 5691,
      "anav": 5692,
      "arc": 5693,
      "diphosphoglycerate": 5694,
      "Ġexer": 5695,
      "Ġentero": 5696,
      "Ġdisco": 5697,
      "ĠSuch": 5698,
      "ĠPA": 5699,
      "Ġhearts": 5700,
      "rief": 5701,
      "oxal": 5702,
      "Ġcontact": 5703,
      "tened": 5704,
      "gest": 5705,
      "ĠHis": 5706,
      "ĠGTP": 5707,
      "Ġarth": 5708,
      "ĠOx": 5709,
      "ĠOur": 5710,
      "Ġsection": 5711,
      "Ġmonophosphate": 5712,
      "Ġminute": 5713,
      "artment": 5714,
      "icients": 5715,
      "Ġroutine": 5716,
      "Ġlesser": 5717,
      "Ġquen": 5718,
      "Ġphenyle": 5719,
      "iotic": 5720,
      "Ġmales": 5721,
      "tification": 5722,
      "Ġclon": 5723,
      "coplasmic": 5724,
      "Ġstimuli": 5725,
      "Ġtube": 5726,
      "Ġrelationships": 5727,
      "Ġhypoxic": 5728,
      "Ġdenatured": 5729,
      "osynthetic": 5730,
      "Ġpregnant": 5731,
      "Ġsteps": 5732,
      "Ġindirect": 5733,
      "radiol": 5734,
      "Ġresonances": 5735,
      "Ġneurom": 5736,
      "Ġfemales": 5737,
      "Ġdecreasing": 5738,
      "Ġassessment": 5739,
      "Ġpotentiated": 5740,
      "Ġmonkeys": 5741,
      "Ġrhyth": 5742,
      "Ġsimultaneously": 5743,
      "Ġirradiation": 5744,
      "Ġirradiated": 5745,
      "Ġtachycardia": 5746,
      "Ġexcreted": 5747,
      "Ġalternative": 5748,
      "Ġdetergent": 5749,
      "easure": 5750,
      "Regulation": 5751,
      "ostridium": 5752,
      "66": 5753,
      "DA": 5754,
      "HA": 5755,
      "cyclic": 5756,
      "eed": 5757,
      "ped": 5758,
      "tage": 5759,
      "Ġtrop": 5760,
      "heum": 5761,
      "rele": 5762,
      "Ġtheory": 5763,
      "Ġpump": 5764,
      "Ġinner": 5765,
      "Ġdental": 5766,
      "Ġdown": 5767,
      "ica": 5768,
      "Ġfull": 5769,
      "anal": 5770,
      "oline": 5771,
      "oluble": 5772,
      "artic": 5773,
      "ecithin": 5774,
      "Ġtoo": 5775,
      "Ġacetic": 5776,
      "Ġvs": 5777,
      "ocial": 5778,
      "ogens": 5779,
      "ĠpHi": 5780,
      "irin": 5781,
      "iring": 5782,
      "Ġdisper": 5783,
      "Ġ31": 5784,
      "ichi": 5785,
      "Ġhere": 5786,
      "Ġparen": 5787,
      "Ġcontribution": 5788,
      "Ġleucine": 5789,
      "lastic": 5790,
      "ives": 5791,
      "Ġcortical": 5792,
      "Ġantihist": 5793,
      "ĠKi": 5794,
      "ĠThree": 5795,
      "Ġfollows": 5796,
      "Ġdesensitization": 5797,
      "Ġroute": 5798,
      "Ġqual": 5799,
      "Ġdoub": 5800,
      "acterial": 5801,
      "ytical": 5802,
      "Ġgrad": 5803,
      "Ġinflux": 5804,
      "Ġinjections": 5805,
      "Ġmalign": 5806,
      "Ġlocus": 5807,
      "Ġdelayed": 5808,
      "Ġje": 5809,
      "Ġproline": 5810,
      "oproteins": 5811,
      "Ġlysyl": 5812,
      "Ġneutroph": 5813,
      "male": 5814,
      "Ġpyridine": 5815,
      "Ġdissociated": 5816,
      "Ġinclude": 5817,
      "Ġgranul": 5818,
      "Ġresemb": 5819,
      "Ġcoefficients": 5820,
      "Ġradioactive": 5821,
      "Ġconducted": 5822,
      "Ġanalgesic": 5823,
      "Ġbladder": 5824,
      "Ġentire": 5825,
      "Ġcephal": 5826,
      "anavalin": 5827,
      "+]": 5828,
      "65": 5829,
      "HCO": 5830,
      "Phe": 5831,
      "dose": 5832,
      "piratory": 5833,
      "zyg": 5834,
      "ination": 5835,
      "infl": 5836,
      "Ġaure": 5837,
      "Ġoil": 5838,
      "teral": 5839,
      "ense": 5840,
      "Ġple": 5841,
      "Ġput": 5842,
      "ester": 5843,
      "Ġdoc": 5844,
      "Ġmine": 5845,
      "ectious": 5846,
      "Ġeas": 5847,
      "ossible": 5848,
      "Ġacros": 5849,
      "amus": 5850,
      "yline": 5851,
      "stolic": 5852,
      "absorption": 5853,
      "ĠCF": 5854,
      "rach": 5855,
      "Ġadverse": 5856,
      "Ġphases": 5857,
      "ĠSH": 5858,
      "ĠSub": 5859,
      "oxone": 5860,
      "Ġcontraction": 5861,
      "Ġstudents": 5862,
      "Ġtranshydrogen": 5863,
      "ĠHCl": 5864,
      "Ġprotection": 5865,
      "Ġseas": 5866,
      "Ġaging": 5867,
      "Ġantipsychotic": 5868,
      "outh": 5869,
      "Ġmeasures": 5870,
      "Ġcarbam": 5871,
      "Ġcommun": 5872,
      "Ġcytot": 5873,
      "Ġexpression": 5874,
      "Ġalkylation": 5875,
      "Ġclinically": 5876,
      "Ġlabor": 5877,
      "Ġprobe": 5878,
      "Ġhomogenate": 5879,
      "Ġauto": 5880,
      "ancies": 5881,
      "Ġstrip": 5882,
      "Ġalkali": 5883,
      "Ġsynapt": 5884,
      "Ġlesion": 5885,
      "Ġallowed": 5886,
      "ĠClostridium": 5887,
      "Ġdisplac": 5888,
      "competitive": 5889,
      "Ġfixed": 5890,
      "Ġcytoplasm": 5891,
      "depend": 5892,
      "Ġcarcinoma": 5893,
      "Ġparental": 5894,
      "Ġsarcoplasmic": 5895,
      "Ġreason": 5896,
      "Ġphentolamine": 5897,
      "Ġheparin": 5898,
      "ignificant": 5899,
      "ventilation": 5900,
      "Ġjejun": 5901,
      "42": 5902,
      "45": 5903,
      "Rec": 5904,
      "dopa": 5905,
      "folate": 5906,
      "iable": 5907,
      "jac": 5908,
      "naph": 5909,
      "sec": 5910,
      "tRNA": 5911,
      "inomycin": 5912,
      "Ġaeros": 5913,
      "Ġtheore": 5914,
      "Ġsatu": 5915,
      "Ġinhal": 5916,
      "aldehyde": 5917,
      "Ġbrief": 5918,
      "itative": 5919,
      "Ġmake": 5920,
      "Ġmature": 5921,
      "icidal": 5922,
      "Ġfund": 5923,
      "Ġfever": 5924,
      "Ġregen": 5925,
      "Ġevery": 5926,
      "ostig": 5927,
      "Ġtop": 5928,
      "Ġglyce": 5929,
      "Ġischa": 5930,
      "Ġatropine": 5931,
      "thanol": 5932,
      "thyroid": 5933,
      "Ġprel": 5934,
      "perg": 5935,
      "Ġpert": 5936,
      "Ġtranspl": 5937,
      "tudy": 5938,
      "Ġhydrolases": 5939,
      "heme": 5940,
      "Ġtimolol": 5941,
      "Ġdeterminations": 5942,
      "Ġequally": 5943,
      "Ġspectrom": 5944,
      "Ġinvestigate": 5945,
      "Ġchromatin": 5946,
      "Ġgels": 5947,
      "Ġpathological": 5948,
      "Ġlargely": 5949,
      "Ġantagonism": 5950,
      "Ġevaluate": 5951,
      "Ġcerebrospinal": 5952,
      "Ġworking": 5953,
      "Ġutilized": 5954,
      "Ġbilirubin": 5955,
      "ĠPhot": 5956,
      "Ġfragment": 5957,
      "Ġallows": 5958,
      "rogenic": 5959,
      "Ġabsorbed": 5960,
      "hexyl": 5961,
      "Ġdifferentiation": 5962,
      "Ġgalactose": 5963,
      "Ġsaliva": 5964,
      "Ġbenzodiazepines": 5965,
      "Ġmammary": 5966,
      "Ġaccelerated": 5967,
      "Ġdextran": 5968,
      "obuty": 5969,
      "Ġexample": 5970,
      "osteric": 5971,
      "hydroxytryptamine": 5972,
      "Ġvolunteers": 5973,
      "ostigmine": 5974,
      "29": 5975,
      "ES": 5976,
      "GMP": 5977,
      "LP": 5978,
      "Sp": 5979,
      "Use": 5980,
      "iety": 5981,
      "lig": 5982,
      "inol": 5983,
      "Ġaero": 5984,
      "here": 5985,
      "tia": 5986,
      "tiamide": 5987,
      "Ġsick": 5988,
      "Ġbu": 5989,
      "anning": 5990,
      "eces": 5991,
      "cel": 5992,
      "Ġisocitrate": 5993,
      "Ġdem": 5994,
      "Ġdex": 5995,
      "ocal": 5996,
      "ĠCP": 5997,
      "oxicity": 5998,
      "Ġsharp": 5999,
      "tenance": 6000,
      "Ġtransferase": 6001,
      "Ġtransloc": 6002,
      "erases": 6003,
      "lowing": 6004,
      "Ġphosphates": 6005,
      "Ġunus": 6006,
      "Ġpartition": 6007,
      "Ġmonol": 6008,
      "Ġyet": 6009,
      "Ġresidual": 6010,
      "Ġsuppression": 6011,
      "Ġdissolution": 6012,
      "Ġcorrelate": 6013,
      "Ġgives": 6014,
      "Ġcirculatory": 6015,
      "Ġreflux": 6016,
      "Ġpyrid": 6017,
      "Ġremaining": 6018,
      "rowth": 6019,
      "Ġchemically": 6020,
      "Ġcarboxypeptidase": 6021,
      "electro": 6022,
      "ĠAlso": 6023,
      "Ġredox": 6024,
      "Ġlungs": 6025,
      "Ġreverse": 6026,
      "Ġtubular": 6027,
      "Ġhepatitis": 6028,
      "Ġlimit": 6029,
      "Ġvasoconst": 6030,
      "Ġmoiety": 6031,
      "soluble": 6032,
      "Ġouabain": 6033,
      "Ġheterogene": 6034,
      "logical": 6035,
      "Ġtwice": 6036,
      "ĠComparison": 6037,
      "Ġphenomena": 6038,
      "Ġloading": 6039,
      "ĠPaCO": 6040,
      "Ġmelan": 6041,
      "Ġsusceptible": 6042,
      "Ġinjuries": 6043,
      "ĠNeither": 6044,
      "Ġspectrophotometric": 6045,
      "Ġsatisfactory": 6046,
      "Ġtraining": 6047,
      "odopsin": 6048,
      "Ġgermination": 6049,
      "osteroids": 6050,
      "inflammatory": 6051,
      "Ġpreliminary": 6052,
      "pergillus": 6053,
      "AT": 6054,
      "ious": 6055,
      "kin": 6056,
      "mut": 6057,
      "pass": 6058,
      "tap": 6059,
      "Ġ.": 6060,
      "independent": 6061,
      "Ġaid": 6062,
      "Ġaortic": 6063,
      "reptom": 6064,
      "encies": 6065,
      "Ġcerv": 6066,
      "rost": 6067,
      "Ġanemia": 6068,
      "itored": 6069,
      "olone": 6070,
      "ings": 6071,
      "leucine": 6072,
      "Ġrare": 6073,
      "Ġadv": 6074,
      "Ġaddi": 6075,
      "Ġtransfusion": 6076,
      "lasses": 6077,
      "ĠHyp": 6078,
      "ĠElect": 6079,
      "apine": 6080,
      "Ġinfused": 6081,
      "akes": 6082,
      "Ġsystolic": 6083,
      "tual": 6084,
      "Ġ72": 6085,
      "Ġmetoprolol": 6086,
      "serine": 6087,
      "ĠKinetic": 6088,
      "allen": 6089,
      "ruction": 6090,
      "Ġindications": 6091,
      "Ġmonitored": 6092,
      "forming": 6093,
      "Ġregular": 6094,
      "Ġallosteric": 6095,
      "Ġdistress": 6096,
      "Ġinside": 6097,
      "erous": 6098,
      "Ġexpressed": 6099,
      "Ġarteries": 6100,
      "Ġoxygenation": 6101,
      "Ġdehydrogenases": 6102,
      "Ġdeficient": 6103,
      "Ġlowering": 6104,
      "liter": 6105,
      "Ġstimulate": 6106,
      "Ġhistid": 6107,
      "Ġmodels": 6108,
      "Ġsympath": 6109,
      "Properties": 6110,
      "Ġfermentation": 6111,
      "ynthesis": 6112,
      "Ġattack": 6113,
      "Ġpsychotropic": 6114,
      "Ġlinearly": 6115,
      "Ġdiets": 6116,
      "Ġregional": 6117,
      "Ġnode": 6118,
      "Ġstarch": 6119,
      "Ġempty": 6120,
      "Ġimplications": 6121,
      "GlcNAc": 6122,
      "Ġcatheter": 6123,
      "ĠIgM": 6124,
      "Ġarylsulfatase": 6125,
      "Ġhepatoma": 6126,
      "perimental": 6127,
      "Ġcontribute": 6128,
      "Ġtreatments": 6129,
      "Ġadaptation": 6130,
      "obacterium": 6131,
      "Ġgastrointestinal": 6132,
      "Ġelectrolyte": 6133,
      "Ġcreatine": 6134,
      "Ġpredominantly": 6135,
      "Ġinfarction": 6136,
      "Ġencephalitis": 6137,
      "Ġadsorbed": 6138,
      "Ġnaloxone": 6139,
      "Ġbreathing": 6140,
      "Ġcortisol": 6141,
      "uantitative": 6142,
      "tapH": 6143,
      "04": 6144,
      "95": 6145,
      "Eq": 6146,
      "cle": 6147,
      "sil": 6148,
      "inter": 6149,
      "Ġsyste": 6150,
      "Ġsaf": 6151,
      "ĠpCO": 6152,
      "Ġcit": 6153,
      "asm": 6154,
      "isopropyl": 6155,
      "Ġdrop": 6156,
      "Ġmental": 6157,
      "ork": 6158,
      "Ġfetus": 6159,
      "oles": 6160,
      "ecal": 6161,
      "atation": 6162,
      "Ġacting": 6163,
      "Ġlayers": 6164,
      "yll": 6165,
      "romercur": 6166,
      "ilical": 6167,
      "ibility": 6168,
      "Ġstop": 6169,
      "Ġ250": 6170,
      "tors": 6171,
      "ĠMed": 6172,
      "erazine": 6173,
      "Ġ44": 6174,
      "Ġkg": 6175,
      "Ġseed": 6176,
      "ribed": 6177,
      "serum": 6178,
      "ĠRec": 6179,
      "Ġrespond": 6180,
      "ĠOptim": 6181,
      "Ġevents": 6182,
      "lined": 6183,
      "Ġsections": 6184,
      "Ġmonoxide": 6185,
      "Ġinterest": 6186,
      "Ġoxidoreductase": 6187,
      "Ġroom": 6188,
      "Ġquite": 6189,
      "Ġglycol": 6190,
      "ervated": 6191,
      "ĠAspergillus": 6192,
      "Ġorally": 6193,
      "Ġsynapses": 6194,
      "Ġheterozyg": 6195,
      "Ġprevention": 6196,
      "Ġdilution": 6197,
      "termination": 6198,
      "iasis": 6199,
      "Ġganglia": 6200,
      "Ġvisual": 6201,
      "Ġmacrom": 6202,
      "Ġhypotensive": 6203,
      "Ġsplit": 6204,
      "anilide": 6205,
      "Ġimpair": 6206,
      "Ġtracheal": 6207,
      "Ġsalivary": 6208,
      "Ġsegment": 6209,
      "roxene": 6210,
      "Ġcryptorchidism": 6211,
      "Ġadvantages": 6212,
      "Ġamplitude": 6213,
      "Ġerror": 6214,
      "Ġextremely": 6215,
      "Ġoppos": 6216,
      "stranded": 6217,
      "Ġemphas": 6218,
      "Ġscreening": 6219,
      "Ġbenef": 6220,
      "Ġperturb": 6221,
      "Role": 6222,
      "aemia": 6223,
      "cl": 6224,
      "dered": 6225,
      "way": 6226,
      "Ġtro": 6227,
      "Ġsocial": 6228,
      "Ġinten": 6229,
      "Ġineff": 6230,
      "Ġanterior": 6231,
      "asone": 6232,
      "Ġmatter": 6233,
      "organism": 6234,
      "Ġfore": 6235,
      "Ġfish": 6236,
      "ern": 6237,
      "olding": 6238,
      "ollowing": 6239,
      "arded": 6240,
      "usate": 6241,
      "ĠTRH": 6242,
      "accha": 6243,
      "Ġlect": 6244,
      "ucose": 6245,
      "lore": 6246,
      "Ġdied": 6247,
      "chymotrypsin": 6248,
      "ĠPlasma": 6249,
      "times": 6250,
      "Ġcob": 6251,
      "Ġhypothermia": 6252,
      "Ġassumed": 6253,
      "Ġamp": 6254,
      "ophores": 6255,
      "Ġparts": 6256,
      "Ġmedication": 6257,
      "Ġionized": 6258,
      "Ġinteg": 6259,
      "Ġrose": 6260,
      "yridine": 6261,
      "Ġreports": 6262,
      "insulin": 6263,
      "Ġlarv": 6264,
      "Ġbactericidal": 6265,
      "Ġhistory": 6266,
      "Ġprotonated": 6267,
      "Ġreveal": 6268,
      "Ġanesthetics": 6269,
      "Anti": 6270,
      "Ġguanosine": 6271,
      "Ġfeed": 6272,
      "Ġglutamic": 6273,
      "Ġtumour": 6274,
      "Ġcolumns": 6275,
      "Ġcontinued": 6276,
      "Ġmyocardium": 6277,
      "Ġincorporated": 6278,
      "Ġleukocyte": 6279,
      "adenosine": 6280,
      "receptors": 6281,
      "Ġcyst": 6282,
      "Comparison": 6283,
      "Ġabnormalities": 6284,
      "substituted": 6285,
      "Ġperson": 6286,
      "Ġthought": 6287,
      "Ġsegments": 6288,
      "Ġhypothalamic": 6289,
      "Ġreplacement": 6290,
      "Ġreturned": 6291,
      "ollagen": 6292,
      "Ġdiabe": 6293,
      "Ġreconstituted": 6294,
      "opyran": 6295,
      "Ġheavy": 6296,
      "Ġstoichi": 6297,
      "DS": 6298,
      "HP": 6299,
      "HCl": 6300,
      "It": 6301,
      "Kinetics": 6302,
      "Me": 6303,
      "bac": 6304,
      "body": 6305,
      "down": 6306,
      "ferases": 6307,
      "hn": 6308,
      "nithine": 6309,
      "protein": 6310,
      "rig": 6311,
      "trop": 6312,
      "water": 6313,
      "Ġumb": 6314,
      "reduction": 6315,
      "Ġome": 6316,
      "Ġtheophylline": 6317,
      "Ġclasses": 6318,
      "alton": 6319,
      "Ġble": 6320,
      "Ġbath": 6321,
      "isation": 6322,
      "Ġdraw": 6323,
      "Ġdithi": 6324,
      "orylate": 6325,
      "idi": 6326,
      "atest": 6327,
      "lysis": 6328,
      "Ġlag": 6329,
      "Ġproceed": 6330,
      "ellow": 6331,
      "otal": 6332,
      "iliary": 6333,
      "Ġbegin": 6334,
      "ocaine": 6335,
      "ĠCB": 6336,
      "chrom": 6337,
      "Ġdismut": 6338,
      "izable": 6339,
      "ĠNE": 6340,
      "rix": 6341,
      "Ġ47": 6342,
      "Ġcoord": 6343,
      "ĠEach": 6344,
      "Ġmetiamide": 6345,
      "iveness": 6346,
      "Ġunf": 6347,
      "Ġuni": 6348,
      "Ġunlike": 6349,
      "Ġunknown": 6350,
      "serv": 6351,
      "ĠGroup": 6352,
      "lla": 6353,
      "bino": 6354,
      "Ġvariant": 6355,
      "linking": 6356,
      "Ġoptical": 6357,
      "Ġcatabol": 6358,
      "Ġdespite": 6359,
      "uscitation": 6360,
      "Ġrecently": 6361,
      "Ġpressures": 6362,
      "Ġphysi": 6363,
      "Ġendocrine": 6364,
      "Ġemission": 6365,
      "Ġglycolysis": 6366,
      "Ġglycoprotein": 6367,
      "Ġlymphocyte": 6368,
      "Ġcerevis": 6369,
      "Ġabsent": 6370,
      "Ġpostulated": 6371,
      "oplasmic": 6372,
      "fluo": 6373,
      "ĠAsp": 6374,
      "ĠAss": 6375,
      "Ġrestored": 6376,
      "Ġriboflavin": 6377,
      "Ġcarbonyl": 6378,
      "Ġphoto": 6379,
      "Changes": 6380,
      "Ġ1975": 6381,
      "Ġtwit": 6382,
      "phylaxis": 6383,
      "Ġsubstituted": 6384,
      "Ġosmotic": 6385,
      "Ġspontaneously": 6386,
      "Ġoccup": 6387,
      "Ġhelp": 6388,
      "Ġembryo": 6389,
      "Ġsteroid": 6390,
      "Ġsteroids": 6391,
      "Ġattemp": 6392,
      "Ġattempt": 6393,
      "Ġattached": 6394,
      "Ġultracentrifugation": 6395,
      "Ġascorbic": 6396,
      "ĠWhile": 6397,
      "Ġadequate": 6398,
      "Ġchoice": 6399,
      "Ġslope": 6400,
      "Ġarrhythmias": 6401,
      "Ġpermits": 6402,
      "maleimide": 6403,
      "Ġumbilical": 6404,
      "Ġomega": 6405,
      "Ġcerevisiae": 6406,
      "\".": 6407,
      "28": 6408,
      "control": 6409,
      "mor": 6410,
      "oration": 6411,
      "tolol": 6412,
      "uals": 6413,
      "ined": 6414,
      "Ġaer": 6415,
      "Ġti": 6416,
      "tium": 6417,
      "reitol": 6418,
      "Ġsinus": 6419,
      "ramin": 6420,
      "Ġduc": 6421,
      "Ġdone": 6422,
      "ĠmEq": 6423,
      "Ġfas": 6424,
      "oli": 6425,
      "aryl": 6426,
      "Ġejac": 6427,
      "ulates": 6428,
      "Ġacts": 6429,
      "ĠTrans": 6430,
      "Ġgo": 6431,
      "urrent": 6432,
      "romyces": 6433,
      "Ġdeep": 6434,
      "Ġstation": 6435,
      "Ġstrept": 6436,
      "Ġchallen": 6437,
      "duct": 6438,
      "ĠInt": 6439,
      "Ġcompens": 6440,
      "opo": 6441,
      "ads": 6442,
      "pped": 6443,
      "ĠNMR": 6444,
      "ichloro": 6445,
      "istribution": 6446,
      "Ġobtain": 6447,
      "Ġconcentrated": 6448,
      "othreitol": 6449,
      "Ġinfectious": 6450,
      "ologous": 6451,
      "Ġunstable": 6452,
      "Ġsolid": 6453,
      "Ġnovel": 6454,
      "ĠRep": 6455,
      "Ġmonovalent": 6456,
      "Ġfluroxene": 6457,
      "Ġpurp": 6458,
      "licated": 6459,
      "Ġhemat": 6460,
      "Ġbio": 6461,
      "Ġunderst": 6462,
      "Ġroot": 6463,
      "Ġblockers": 6464,
      "Ġexcit": 6465,
      "Ġexclusive": 6466,
      "Ġarteritis": 6467,
      "Ġgreatest": 6468,
      "Ġhypert": 6469,
      "Ġdepended": 6470,
      "Ġapparatus": 6471,
      "Ġjump": 6472,
      "Ġselectivity": 6473,
      "Ġstimulatory": 6474,
      "Ġphosphoryl": 6475,
      "Ġfilam": 6476,
      "Ġclearly": 6477,
      "omyel": 6478,
      "Ġquantities": 6479,
      "Ġfrequent": 6480,
      "otropin": 6481,
      "Ġpractical": 6482,
      "Ġpractolol": 6483,
      "blockade": 6484,
      "Ġinfusions": 6485,
      "Ġleukocytes": 6486,
      "Ġthymidine": 6487,
      "Ġapomorphine": 6488,
      "Ġcounter": 6489,
      "versely": 6490,
      "Ġeduc": 6491,
      "Ġeliminated": 6492,
      "Ġaxons": 6493,
      "ĠSeveral": 6494,
      "ĠIgG": 6495,
      "Ġstabil": 6496,
      "Ġhypotension": 6497,
      "lactate": 6498,
      "Ġduodenum": 6499,
      "Ġschizophrenic": 6500,
      "rush": 6501,
      "Ġinjury": 6502,
      "Ġcatalyzes": 6503,
      "Ġradioimmun": 6504,
      "Ġepithelium": 6505,
      "ĠSerum": 6506,
      "Ġaccurate": 6507,
      "Ġcrystalline": 6508,
      "Ġtheoretical": 6509,
      "Ġinhalation": 6510,
      "Ġspectrometry": 6511,
      "silon": 6512,
      "Ġdismutase": 6513,
      "26": 6514,
      "27": 6515,
      "Beta": 6516,
      "Hyp": 6517,
      "Hem": 6518,
      "MT": 6519,
      "Ser": 6520,
      "auc": 6521,
      "arose": 6522,
      "ches": 6523,
      "ele": 6524,
      "eine": 6525,
      "fil": 6526,
      "gastric": 6527,
      "lip": 6528,
      "ned": 6529,
      "oag": 6530,
      "year": 6531,
      "Ġip": 6532,
      "Ġuro": 6533,
      "inic": 6534,
      "Ġtail": 6535,
      "ready": 6536,
      "ena": 6537,
      "Ġpseud": 6538,
      "Ġclin": 6539,
      "Ġwt": 6540,
      "itonin": 6541,
      "atch": 6542,
      "ulus": 6543,
      "ulant": 6544,
      "Ġnum": 6545,
      "Ġnone": 6546,
      "Ġliving": 6547,
      "Ġgain": 6548,
      "urium": 6549,
      "imurium": 6550,
      "ocin": 6551,
      "ocomp": 6552,
      "Ġalready": 6553,
      "Ġresolved": 6554,
      "ifer": 6555,
      "ĠIs": 6556,
      "ople": 6557,
      "adone": 6558,
      "ĠSh": 6559,
      "encephal": 6560,
      "ĠPart": 6561,
      "Ġpair": 6562,
      "perm": 6563,
      "Ġperi": 6564,
      "Ġ51": 6565,
      "Ġtransp": 6566,
      "ĠHist": 6567,
      "ape": 6568,
      "Ġchanging": 6569,
      "astolic": 6570,
      "aves": 6571,
      "cytochrome": 6572,
      "Ġpoison": 6573,
      "Ġvariables": 6574,
      "ethylene": 6575,
      "Ġevident": 6576,
      "Ġsimpl": 6577,
      "Ġindices": 6578,
      "Ġrheum": 6579,
      "formations": 6580,
      "Ġplasmin": 6581,
      "ytochrome": 6582,
      "phosphor": 6583,
      "Ġnonspecific": 6584,
      "Ġesophageal": 6585,
      "Ġdeveloping": 6586,
      "Ġremark": 6587,
      "Ġmicroscopic": 6588,
      "Ġsupported": 6589,
      "Ġ120": 6590,
      "Ġmaintenance": 6591,
      "Ġclosed": 6592,
      "valuation": 6593,
      "ledge": 6594,
      "Ġcircum": 6595,
      "Ġcirculating": 6596,
      "Ġpeptidoglycan": 6597,
      "Ġhemoglobins": 6598,
      "Ġtuberc": 6599,
      "Ġseemed": 6600,
      "incubation": 6601,
      "ophilus": 6602,
      "Ġtakes": 6603,
      "Ġmateri": 6604,
      "chloromercur": 6605,
      "Ġquantitatively": 6606,
      "Ġultrastruc": 6607,
      "Ġpolypeptides": 6608,
      "Ġbroad": 6609,
      "Ġinstrum": 6610,
      "Ġschizophrenia": 6611,
      "Ġprincipal": 6612,
      "Ġdegraded": 6613,
      "Ġobstructive": 6614,
      "Ġappreciable": 6615,
      "Ġtranqu": 6616,
      "ergency": 6617,
      "Ġtyphimurium": 6618,
      "Ġprognosis": 6619,
      "oracic": 6620,
      "Ġneuromuscular": 6621,
      "Ġmalignant": 6622,
      "Ġtranshydrogenase": 6623,
      "dependence": 6624,
      "Ġunusual": 6625,
      "44": 6626,
      "85": 6627,
      "Mic": 6628,
      "Man": 6629,
      "Metabol": 6630,
      "Pi": 6631,
      "RS": 6632,
      "Rel": 6633,
      "dens": 6634,
      "his": 6635,
      "rd": 6636,
      "yron": 6637,
      "Ġswe": 6638,
      "Ġpip": 6639,
      "Ġantim": 6640,
      "asu": 6641,
      "Ġmmol": 6642,
      "Ġfit": 6643,
      "ana": 6644,
      "idym": 6645,
      "uli": 6646,
      "Ġnitrate": 6647,
      "Ġgall": 6648,
      "igu": 6649,
      "ocap": 6650,
      "ocortic": 6651,
      "Ġexception": 6652,
      "Ġatm": 6653,
      "ysts": 6654,
      "irty": 6655,
      "Ġacidity": 6656,
      "Ġincomp": 6657,
      "agic": 6658,
      "Ġdisorder": 6659,
      "Ġphag": 6660,
      "Ġ39": 6661,
      "ethidine": 6662,
      "ĠPurification": 6663,
      "ription": 6664,
      "tenolol": 6665,
      "redoxin": 6666,
      "Ġdiffers": 6667,
      "ĠBA": 6668,
      "ĠBec": 6669,
      "ĠBinding": 6670,
      "ĠFour": 6671,
      "ĠFinally": 6672,
      "Ġamb": 6673,
      "aternary": 6674,
      "Ġlivers": 6675,
      "Ġcarotid": 6676,
      "Ġfluids": 6677,
      "ryptoph": 6678,
      "Ġallergic": 6679,
      "Ġhemodi": 6680,
      "Ġ95": 6681,
      "Ġlipoprotein": 6682,
      "Ġhyperp": 6683,
      "Ġdefect": 6684,
      "Ġgeneration": 6685,
      "Ġtesting": 6686,
      "Ġisozymes": 6687,
      "Ġepilep": 6688,
      "ĠAnti": 6689,
      "Ġperfusate": 6690,
      "Ġaspirin": 6691,
      "ospor": 6692,
      "Ġshifted": 6693,
      "Ġperoxide": 6694,
      "Ġhyal": 6695,
      "Ġleukemia": 6696,
      "Ġangi": 6697,
      "Ġindividuals": 6698,
      "Ġosmol": 6699,
      "dentification": 6700,
      "Ġseminal": 6701,
      "Ġillness": 6702,
      "Ġsituation": 6703,
      "ogluc": 6704,
      "Ġeluted": 6705,
      "Struc": 6706,
      "tetrahydro": 6707,
      "Ġischemia": 6708,
      "imetidine": 6709,
      "Ġattenuated": 6710,
      "Ġdestro": 6711,
      "Ġsusceptibility": 6712,
      "Immun": 6713,
      "Ġhypothalamus": 6714,
      "Ġantichol": 6715,
      "Ġbarri": 6716,
      "ourable": 6717,
      "Ġovarian": 6718,
      "unitrazepam": 6719,
      "urgical": 6720,
      "rodotoxin": 6721,
      "aspartate": 6722,
      "Ġeye": 6723,
      "Ġbarbitu": 6724,
      "Ġcompetition": 6725,
      "Ġqualitative": 6726,
      "thanolamine": 6727,
      "organisms": 6728,
      "Ġstationary": 6729,
      "yronine": 6730,
      "Ca": 6731,
      "DC": 6732,
      "LC": 6733,
      "Lys": 6734,
      "Mechanism": 6735,
      "Sephadex": 6736,
      "TT": 6737,
      "bi": 6738,
      "cing": 6739,
      "hosts": 6740,
      "mu": 6741,
      "ino": 6742,
      "Ġtar": 6743,
      "Ġtent": 6744,
      "Ġpp": 6745,
      "Ġchel": 6746,
      "Ġinges": 6747,
      "Ġdalton": 6748,
      "Ġrejection": 6749,
      "enta": 6750,
      "lebs": 6751,
      "Ġnine": 6752,
      "umen": 6753,
      "ibenzoate": 6754,
      "static": 6755,
      "Ġalumin": 6756,
      "thym": 6757,
      "ĠProte": 6758,
      "ĠMost": 6759,
      "genital": 6760,
      "Ġ59": 6761,
      "Ġlear": 6762,
      "Ġabund": 6763,
      "ĠDO": 6764,
      "Ġ43": 6765,
      "Ġ400": 6766,
      "ĠBased": 6767,
      "Ġ68": 6768,
      "aking": 6769,
      "akay": 6770,
      "Ġhypn": 6771,
      "Ġassist": 6772,
      "Ġelectric": 6773,
      "azone": 6774,
      "Ġinterval": 6775,
      "Ġevolution": 6776,
      "Ġ85": 6777,
      "ociation": 6778,
      "Ġope": 6779,
      "vention": 6780,
      "Ġquin": 6781,
      "Ġsimilarly": 6782,
      "Ġmalate": 6783,
      "Ġdemonstrates": 6784,
      "Ġlabile": 6785,
      "Ġlabelled": 6786,
      "Ġglycolytic": 6787,
      "teroid": 6788,
      "ascul": 6789,
      "mean": 6790,
      "Ġinitially": 6791,
      "ietic": 6792,
      "udate": 6793,
      "Characterization": 6794,
      "Ġnecrosis": 6795,
      "Ġsecretin": 6796,
      "Ġventric": 6797,
      "phenylalanine": 6798,
      "ritin": 6799,
      "Ġsubsequently": 6800,
      "Ala": 6801,
      "nitros": 6802,
      "Ġmacroph": 6803,
      "Ġascites": 6804,
      "Ġtrachea": 6805,
      "ĠEnzyme": 6806,
      "ĠEffects": 6807,
      "Ġconsequence": 6808,
      "Ġisotope": 6809,
      "osaminidase": 6810,
      "Ġretina": 6811,
      "Ġmosquitoes": 6812,
      "rophenol": 6813,
      "wenty": 6814,
      "Ġsumm": 6815,
      "sembly": 6816,
      "Ġphenylephrine": 6817,
      "accharomyces": 6818,
      "Ġlarvae": 6819,
      "Ġmaterials": 6820,
      "ryptophan": 6821,
      "lebsiella": 6822,
      "67": 6823,
      "AP": 6824,
      "Evidence": 6825,
      "IB": 6826,
      "MV": 6827,
      "aved": 6828,
      "aphyl": 6829,
      "bor": 6830,
      "brain": 6831,
      "butam": 6832,
      "lan": 6833,
      "rp": 6834,
      "uoden": 6835,
      "vuls": 6836,
      "yrosine": 6837,
      "Ġtric": 6838,
      "titial": 6839,
      "Ġinver": 6840,
      "Ġwa": 6841,
      "Ġbull": 6842,
      "icin": 6843,
      "icol": 6844,
      "Ġnursing": 6845,
      "Ġlute": 6846,
      "Ġlecithin": 6847,
      "ffeine": 6848,
      "Ġenter": 6849,
      "ĠCor": 6850,
      "zymatic": 6851,
      "opter": 6852,
      "mino": 6853,
      "ĠPF": 6854,
      "ĠPer": 6855,
      "rite": 6856,
      "oxia": 6857,
      "Ġrespective": 6858,
      "Ġintubation": 6859,
      "ĠHal": 6860,
      "ĠHill": 6861,
      "Ġoxprenolol": 6862,
      "pair": 6863,
      "ĠFollowing": 6864,
      "Ġmethadone": 6865,
      "ĠLact": 6866,
      "illation": 6867,
      "Ġsolvents": 6868,
      "ĠKlebsiella": 6869,
      "ogenetic": 6870,
      "ĠRNase": 6871,
      "Ġintercon": 6872,
      "ramide": 6873,
      "yryl": 6874,
      "Ġintraper": 6875,
      "Ġdistributed": 6876,
      "Ġlipolytic": 6877,
      "Ġvirtually": 6878,
      "Ġgelatin": 6879,
      "Ġbacterium": 6880,
      "Ġmaintain": 6881,
      "adrenoreceptor": 6882,
      "Ġurease": 6883,
      "ventricular": 6884,
      "Ġperoxis": 6885,
      "Ġouts": 6886,
      "Acid": 6887,
      "Ġstarvation": 6888,
      "Ġclassical": 6889,
      "Ġprostaglandins": 6890,
      "anthine": 6891,
      "Ġinfluences": 6892,
      "Ġcompetitively": 6893,
      "Ġpenicill": 6894,
      "Ġavailability": 6895,
      "Ġenvironmental": 6896,
      "Ġdisplayed": 6897,
      "1975": 6898,
      "Ġtendency": 6899,
      "Ġconclusions": 6900,
      "Ġanalysed": 6901,
      "Ġattention": 6902,
      "Ġbenzodiazepine": 6903,
      "Ġinfertility": 6904,
      "Ġtauro": 6905,
      "Ġinoculation": 6906,
      "alcium": 6907,
      "associated": 6908,
      "degrees": 6909,
      "Ġtriglyceride": 6910,
      "Ġtablets": 6911,
      "Ġdisulfide": 6912,
      "Ġtrauma": 6913,
      "Ġrecommended": 6914,
      "Ġknowledge": 6915,
      "Ġquenching": 6916,
      "Ġclonidine": 6917,
      "Ġaureus": 6918,
      "Ġdithiothreitol": 6919,
      "Ġbeginning": 6920,
      "Ġradioimmunoassay": 6921,
      "butamol": 6922,
      "\",": 6923,
      "31": 6924,
      "Br": 6925,
      "RI": 6926,
      "TC": 6927,
      "bal": 6928,
      "din": 6929,
      "mole": 6930,
      "Ġ&": 6931,
      "enedi": 6932,
      "Ġsonic": 6933,
      "Ġsaturated": 6934,
      "Ġpan": 6935,
      "roximately": 6936,
      "Ġbrush": 6937,
      "Ġmercur": 6938,
      "arr": 6939,
      "idae": 6940,
      "lete": 6941,
      "Ġtook": 6942,
      "Ġlens": 6943,
      "Ġgest": 6944,
      "Ġdevi": 6945,
      "ĠAmong": 6946,
      "ĠAnalysis": 6947,
      "Ġexceed": 6948,
      "odes": 6949,
      "Ġresin": 6950,
      "Ġatria": 6951,
      "ĠCom": 6952,
      "Ġornithine": 6953,
      "ops": 6954,
      "agastrin": 6955,
      "ministration": 6956,
      "ĠNeu": 6957,
      "hene": 6958,
      "Ġneoplas": 6959,
      "Ġshun": 6960,
      "ĠMan": 6961,
      "Ġlethal": 6962,
      "Ġprotected": 6963,
      "Ġcooperative": 6964,
      "Ġkept": 6965,
      "ĠES": 6966,
      "Ġreact": 6967,
      "astom": 6968,
      "Ġcorp": 6969,
      "illi": 6970,
      "Ġantiserum": 6971,
      "avail": 6972,
      "ĠWhe": 6973,
      "rophosph": 6974,
      "ondro": 6975,
      "Ġanalytical": 6976,
      "Ġhumans": 6977,
      "Ġbiot": 6978,
      "Ġconsisting": 6979,
      "Ġquaternary": 6980,
      "rapeutic": 6981,
      "Ġesterase": 6982,
      "vious": 6983,
      "Ġdiscontinu": 6984,
      "Ġinsensitive": 6985,
      "Ġexpon": 6986,
      "ĠVE": 6987,
      "Ġsuppress": 6988,
      "Ġinvolve": 6989,
      "Ġsalbutamol": 6990,
      "Ġmostly": 6991,
      "titude": 6992,
      "Ġpathogenesis": 6993,
      "Ġmycel": 6994,
      "Ġcholera": 6995,
      "Ġselectively": 6996,
      "Ġcombinations": 6997,
      "umination": 6998,
      "125": 6999,
      "Ġquantity": 7000,
      "Ġtetracycline": 7001,
      "Ġautonomic": 7002,
      "Ġgenes": 7003,
      "benzyl": 7004,
      "Ġexplan": 7005,
      "ĠPGF": 7006,
      "sulfate": 7007,
      "Ġventilatory": 7008,
      "Ġpotentiation": 7009,
      "Ġepididym": 7010,
      "Ġcrystal": 7011,
      "Ġreviewed": 7012,
      "Ġbroth": 7013,
      "Ġacceptors": 7014,
      "Ġvaccin": 7015,
      "Ġmatrix": 7016,
      "Determination": 7017,
      "Ġfluxes": 7018,
      "Sepharose": 7019,
      "Ġbreakdown": 7020,
      "Ġlumen": 7021,
      "Ġdiabetic": 7022,
      "enolpyruvate": 7023,
      "Ġsuccessfully": 7024,
      "Ġanhydrase": 7025,
      "Ġintracranial": 7026,
      "Ġresponsiveness": 7027,
      "Ġrecombination": 7028,
      "Ġmineral": 7029,
      "Ġjejunum": 7030,
      "reptomyces": 7031,
      "Ġsystematic": 7032,
      "Ġampicillin": 7033,
      "akayasu": 7034,
      "%;": 7035,
      "41": 7036,
      "AM": 7037,
      "BC": 7038,
      "EP": 7039,
      "Fe": 7040,
      "MO": 7041,
      "Study": 7042,
      "bl": 7043,
      "gu": 7044,
      "trac": 7045,
      "uit": 7046,
      "vestig": 7047,
      "with": 7048,
      "yanide": 7049,
      "Ġara": 7050,
      "Ġaerobic": 7051,
      "reb": 7052,
      "Ġsph": 7053,
      "Ġport": 7054,
      "Ġcow": 7055,
      "Ġcore": 7056,
      "rot": 7057,
      "Ġborder": 7058,
      "anes": 7059,
      "artial": 7060,
      "Ġreal": 7061,
      "Ġrevers": 7062,
      "idium": 7063,
      "oser": 7064,
      "Ġham": 7065,
      "ĠnM": 7066,
      "Ġge": 7067,
      "ithium": 7068,
      "imidine": 7069,
      "amido": 7070,
      "Ġstaphyl": 7071,
      "range": 7072,
      "ĠAz": 7073,
      "ympath": 7074,
      "ecting": 7075,
      "Ġresuscitation": 7076,
      "Ġdirection": 7077,
      "adine": 7078,
      "Ġdisrup": 7079,
      "Ġcellul": 7080,
      "ession": 7081,
      "Ġconcanavalin": 7082,
      "Ġcoopera": 7083,
      "Ġusual": 7084,
      "ĠBlood": 7085,
      "othyronine": 7086,
      "Ġsever": 7087,
      "Ġeffector": 7088,
      "apto": 7089,
      "Ġeluc": 7090,
      "Ġdecline": 7091,
      "ribut": 7092,
      "ronic": 7093,
      "Ġmethemoglobin": 7094,
      "ĠLD": 7095,
      "ĠLys": 7096,
      "ills": 7097,
      "plate": 7098,
      "velength": 7099,
      "Ġamph": 7100,
      "ophag": 7101,
      "Ġposts": 7102,
      "Ġeviden": 7103,
      "Ġlyase": 7104,
      "rophyll": 7105,
      "Ġproperty": 7106,
      "eneral": 7107,
      "Ġdesatu": 7108,
      "actors": 7109,
      "Ġchromophore": 7110,
      "Ġrepression": 7111,
      "Ġrelevant": 7112,
      "Ġcytoch": 7113,
      "iodothyronine": 7114,
      "Ġoutcome": 7115,
      "Ġexplo": 7116,
      "hydraz": 7117,
      "ĠVO": 7118,
      "attering": 7119,
      "Ġlocomotor": 7120,
      "Ġdefects": 7121,
      "Ġfibres": 7122,
      "Ġsubjective": 7123,
      "orescence": 7124,
      "erens": 7125,
      "Ġprotonation": 7126,
      "Ġmicroorganisms": 7127,
      "armacological": 7128,
      "oplasm": 7129,
      "Ġestradiol": 7130,
      "electroph": 7131,
      "Ġrestric": 7132,
      "Ġestimation": 7133,
      "razol": 7134,
      "Ġvolumes": 7135,
      "Ġpolymers": 7136,
      "Ġanalogue": 7137,
      "butyl": 7138,
      "Ġutilizing": 7139,
      "Ġneurop": 7140,
      "Ġnegatively": 7141,
      "Ġbiliary": 7142,
      "Ġrepresents": 7143,
      "Ġsubstitution": 7144,
      "opathy": 7145,
      "substrate": 7146,
      "Ġneeded": 7147,
      "2318": 7148,
      "Ġphosphatidyl": 7149,
      "Ġdestruction": 7150,
      "Ġdesigned": 7151,
      "Ġaldosterone": 7152,
      "Ġinflammatory": 7153,
      "agglutinin": 7154,
      "Ġverteb": 7155,
      "hydroxyphenyl": 7156,
      "ĠCells": 7157,
      "Ġthromb": 7158,
      "ocytosis": 7159,
      "Intra": 7160,
      "Ġundergoing": 7161,
      "Ġcoagulation": 7162,
      "orimetric": 7163,
      "Ġdisposition": 7164,
      "Ġsurvey": 7165,
      "Ġcervical": 7166,
      "Ġtrout": 7167,
      "Ġeducation": 7168,
      "Ġbarrier": 7169,
      "Ġdesaturase": 7170,
      "23187": 7171,
      "-)": 7172,
      "63": 7173,
      "Analysis": 7174,
      "SI": 7175,
      "cers": 7176,
      "dT": 7177,
      "hour": 7178,
      "hood": 7179,
      "iral": 7180,
      "ncy": 7181,
      "oy": 7182,
      "utive": 7183,
      "rep": 7184,
      "enced": 7185,
      "Ġsul": 7186,
      "ĠpI": 7187,
      "Ġcros": 7188,
      "Ġcav": 7189,
      "rative": 7190,
      "Ġanastom": 7191,
      "tioned": 7192,
      "Ġbab": 7193,
      "Ġbrough": 7194,
      "itory": 7195,
      "Ġmem": 7196,
      "orr": 7197,
      "Ġfind": 7198,
      "arcin": 7199,
      "Ġrect": 7200,
      "Ġretention": 7201,
      "leg": 7202,
      "Ġtobac": 7203,
      "lymph": 7204,
      "ĠTris": 7205,
      "Ġgent": 7206,
      "Ġgram": 7207,
      "Ġghosts": 7208,
      "cereb": 7209,
      "urt": 7210,
      "imil": 7211,
      "Ġwashing": 7212,
      "dihydroxy": 7213,
      "loid": 7214,
      "Ġ1000": 7215,
      "ĠAK": 7216,
      "Ġaldehyde": 7217,
      "Ġchamb": 7218,
      "Ġchondro": 7219,
      "Ġenvelop": 7220,
      "Ġresolution": 7221,
      "Ġdiaz": 7222,
      "ypro": 7223,
      "Ġspores": 7224,
      "Ġdischar": 7225,
      "ethod": 7226,
      "ĠSaccharomyces": 7227,
      "ript": 7228,
      "genes": 7229,
      "Ġ41": 7230,
      "ĠBe": 7231,
      "Ġ66": 7232,
      "Ġphosphatases": 7233,
      "Ġchann": 7234,
      "ostatic": 7235,
      "Ġunable": 7236,
      "ropranolol": 7237,
      "aries": 7238,
      "Ġreliable": 7239,
      "ĠKM": 7240,
      "Ġresponded": 7241,
      "Ġserve": 7242,
      "Ġplants": 7243,
      "Ġinters": 7244,
      "phosphates": 7245,
      "Ġregulated": 7246,
      "Ġcattle": 7247,
      "Ġstudying": 7248,
      "Ġbiopsy": 7249,
      "Ġaccess": 7250,
      "Ġmangan": 7251,
      "Ġrecording": 7252,
      "Ġintragastric": 7253,
      "Ġcommerc": 7254,
      "cholinesterase": 7255,
      "Ġalkyl": 7256,
      "Ġimmunization": 7257,
      "Ġphysiology": 7258,
      "Ġnewly": 7259,
      "Ġapproac": 7260,
      "Ġapproxim": 7261,
      "Ġfractional": 7262,
      "valently": 7263,
      "Ġaccumulate": 7264,
      "Ġtriphosphate": 7265,
      "Ġlimits": 7266,
      "ĠChanges": 7267,
      "Ġimprove": 7268,
      "Ġ1972": 7269,
      "Ġinduces": 7270,
      "ĠExperiments": 7271,
      "Ġdyst": 7272,
      "galactose": 7273,
      "Ġcontractility": 7274,
      "tizing": 7275,
      "Ġoste": 7276,
      "Ġthermodynamic": 7277,
      "Ġpyrophosphate": 7278,
      "Ġdiffering": 7279,
      "Ġillust": 7280,
      "Ġspinach": 7281,
      "Ġfavourable": 7282,
      "Ġconstituents": 7283,
      "Ġphosphatidylcholine": 7284,
      "Ġinterference": 7285,
      "Ġvagotomy": 7286,
      "triphosphate": 7287,
      "Ġfasting": 7288,
      "Ġdifficul": 7289,
      "Ġadvantage": 7290,
      "Ġdisappeared": 7291,
      "Ġglucuronide": 7292,
      "butyrate": 7293,
      "Ġassigned": 7294,
      "Ġmanifestations": 7295,
      "catalyzed": 7296,
      "Ġprotective": 7297,
      "Ġpreferentially": 7298,
      "obutyric": 7299,
      "Ġaerogenes": 7300,
      "Ġtranslocation": 7301,
      "Ġemptying": 7302,
      "Ġopposite": 7303,
      "Ġineffective": 7304,
      "Ġcobalt": 7305,
      "Ġunique": 7306,
      "Ġexclusively": 7307,
      "ĠBecause": 7308,
      "Ġdaltons": 7309,
      "Ġtobacco": 7310,
      "':": 7311,
      "DNA": 7312,
      "Leu": 7313,
      "bacter": 7314,
      "cence": 7315,
      "grown": 7316,
      "iper": 7317,
      "met": 7318,
      "nam": 7319,
      "ss": 7320,
      "uf": 7321,
      "Ã¶": 7322,
      "Ġaug": 7323,
      "Ġole": 7324,
      "enal": 7325,
      "ened": 7326,
      "Ġsac": 7327,
      "Ġdic": 7328,
      "Ġmi": 7329,
      "Ġfores": 7330,
      "antial": 7331,
      "ulg": 7332,
      "ulti": 7333,
      "Ġhind": 7334,
      "Ġactual": 7335,
      "Ġlateral": 7336,
      "utral": 7337,
      "load": 7338,
      "Ġones": 7339,
      "Ġasym": 7340,
      "statin": 7341,
      "sera": 7342,
      "Ġdiuretic": 7343,
      "Ġdiastolic": 7344,
      "Ġcompatible": 7345,
      "aged": 7346,
      "izers": 7347,
      "005": 7348,
      "ĠMean": 7349,
      "erature": 7350,
      "Ġ49": 7351,
      "ĠBut": 7352,
      "Ġke": 7353,
      "Ġkind": 7354,
      "apid": 7355,
      "apeptide": 7356,
      "monium": 7357,
      "Ġglomer": 7358,
      "Ġhypers": 7359,
      "Ġuniform": 7360,
      "weight": 7361,
      "Ġcorrect": 7362,
      "Ġvalinomycin": 7363,
      "ĠGu": 7364,
      "andida": 7365,
      "Ġamphetamine": 7366,
      "Ġdepri": 7367,
      "Ġpool": 7368,
      "Ġpurine": 7369,
      "Ġaminopeptidase": 7370,
      "Ġglucocortic": 7371,
      "Ġcausing": 7372,
      "Ġsometimes": 7373,
      "ĠUpon": 7374,
      "Ġphysostigmine": 7375,
      "Ġapprox": 7376,
      "Ġfractionated": 7377,
      "transpeptidase": 7378,
      "Ġdeferens": 7379,
      "occus": 7380,
      "Ġvoltage": 7381,
      "values": 7382,
      "oactive": 7383,
      "Ġphosphorylated": 7384,
      "eroxidase": 7385,
      "Ġsurfaces": 7386,
      "Ġtrials": 7387,
      "Ġflag": 7388,
      "flurane": 7389,
      "Ġconsisted": 7390,
      "Ġolder": 7391,
      "Ġleading": 7392,
      "Ġreveals": 7393,
      "enicillin": 7394,
      "Ġpneumococci": 7395,
      "Ġelectrostatic": 7396,
      "Ġpositively": 7397,
      "ĠStreptomyces": 7398,
      "Ġalcoholic": 7399,
      "Ġligase": 7400,
      "Ġpractition": 7401,
      "Ġprogress": 7402,
      "Ġsecreted": 7403,
      "Phys": 7404,
      "Ġanalgesia": 7405,
      "Ġocclusion": 7406,
      "vision": 7407,
      "Ġarylsulph": 7408,
      "ketoglutarate": 7409,
      "Ġstabilized": 7410,
      "Ġfoetal": 7411,
      "ĠArg": 7412,
      "Ġmonomeric": 7413,
      "Ġconnection": 7414,
      "positive": 7415,
      "Ġreplaced": 7416,
      "nucleotid": 7417,
      "eduction": 7418,
      "Ġrecognition": 7419,
      "Ġunsaturated": 7420,
      "Ġpellet": 7421,
      "Ġoligosaccharides": 7422,
      "Ġfractures": 7423,
      "reonine": 7424,
      "week": 7425,
      "Ġreflected": 7426,
      "Ġfamily": 7427,
      "Ġrhythm": 7428,
      "Ġimpairment": 7429,
      "opoietic": 7430,
      "Ġwavelength": 7431,
      "Ġoutside": 7432,
      "enediamine": 7433,
      "Ġseverity": 7434,
      "Ġbrought": 7435,
      "39": 7436,
      "46": 7437,
      "62": 7438,
      "AA": 7439,
      "CI": 7440,
      "HI": 7441,
      "Hist": 7442,
      "Identification": 7443,
      "LH": 7444,
      "New": 7445,
      "Sub": 7446,
      "VA": 7447,
      "after": 7448,
      "back": 7449,
      "metabol": 7450,
      "ns": 7451,
      "nine": 7452,
      "ux": 7453,
      "inosa": 7454,
      "Ġatenolol": 7455,
      "reo": 7456,
      "Ġpector": 7457,
      "Ġcimetidine": 7458,
      "altered": 7459,
      "alanyl": 7460,
      "Ġwar": 7461,
      "Ġbed": 7462,
      "isc": 7463,
      "Ġms": 7464,
      "Ġmep": 7465,
      "Ġandrogen": 7466,
      "anase": 7467,
      "ley": 7468,
      "Ġhab": 7469,
      "Ġla": 7470,
      "urys": 7471,
      "uria": 7472,
      "imen": 7473,
      "Ġvascul": 7474,
      "Ġstran": 7475,
      "Ġstored": 7476,
      "tivities": 7477,
      "ĠAH": 7478,
      "ocytic": 7479,
      "stances": 7480,
      "ionate": 7481,
      "ysed": 7482,
      "ĠControl": 7483,
      "Ġdiame": 7484,
      "opyr": 7485,
      "Ġspite": 7486,
      "Ġadm": 7487,
      "eptic": 7488,
      "ĠPM": 7489,
      "ĠPeak": 7490,
      "Ġheating": 7491,
      "Ġpretreated": 7492,
      "Ġpermit": 7493,
      "Ġnegl": 7494,
      "ĠMet": 7495,
      "ounds": 7496,
      "timulation": 7497,
      "apt": 7498,
      "Ġ600": 7499,
      "Ġinfant": 7500,
      "aminob": 7501,
      "atively": 7502,
      "Ġhypophys": 7503,
      "arious": 7504,
      "ophosphor": 7505,
      "Ġlowest": 7506,
      "Ġvariants": 7507,
      "obacillus": 7508,
      "Ġundesc": 7509,
      "Ġfluo": 7510,
      "Ġinterac": 7511,
      "phosphatid": 7512,
      "Ġwheat": 7513,
      "Ġequation": 7514,
      "Ġrecon": 7515,
      "Ġphenol": 7516,
      "ĠUV": 7517,
      "Ġpotencies": 7518,
      "Ġuridine": 7519,
      "Ġhyperventilation": 7520,
      "esthesia": 7521,
      "Ġhistological": 7522,
      "Ġhistones": 7523,
      "syn": 7524,
      "Ġpolyarteritis": 7525,
      "Ġsensitized": 7526,
      "Ġpathology": 7527,
      "Ġemo": 7528,
      "Ġscale": 7529,
      "Ġcorrelations": 7530,
      "Ġcholic": 7531,
      "Ġsoils": 7532,
      "Ġelements": 7533,
      "uresis": 7534,
      "Ġmorphology": 7535,
      "Ġfluc": 7536,
      "onucleases": 7537,
      "Ġperfring": 7538,
      "Ġtetrodotoxin": 7539,
      "Ġtransferred": 7540,
      "Ġpsychiatric": 7541,
      "atients": 7542,
      "Ġligation": 7543,
      "Ġpharmacology": 7544,
      "Ġbelie": 7545,
      "Ġpossibilities": 7546,
      "Ġpregnancies": 7547,
      "osyltransferase": 7548,
      "Ġcommonly": 7549,
      "Ġfemoral": 7550,
      "Ġhexa": 7551,
      "spin": 7552,
      "Ġfibrinolytic": 7553,
      "Ġplaced": 7554,
      "ructokinase": 7555,
      "Ġethylene": 7556,
      "Ġsuffering": 7557,
      "Ġsugars": 7558,
      "Ġenthal": 7559,
      "ĠSimilarly": 7560,
      "oxygenase": 7561,
      "Ġintroduction": 7562,
      "Ġprecise": 7563,
      "Ġsnail": 7564,
      "Ġshorter": 7565,
      "Ġchloroform": 7566,
      "Ġhemorrhage": 7567,
      "Ġcorresponds": 7568,
      "salic": 7569,
      "Hydrox": 7570,
      "Interaction": 7571,
      "Ġown": 7572,
      "ĠStaphyl": 7573,
      "Ġeasily": 7574,
      "Ġaerosol": 7575,
      "Ġheterogeneity": 7576,
      "Ġdrawn": 7577,
      "Ġtranquil": 7578,
      "Ġlearning": 7579,
      "Ġoperations": 7580,
      "aptoethanol": 7581,
      "Ġcytochromes": 7582,
      "Ġpectoris": 7583,
      "Ġperfringens": 7584,
      ".).": 7585,
      "68": 7586,
      "Asp": 7587,
      "Drug": 7588,
      "EM": 7589,
      "HO": 7590,
      "HR": 7591,
      "He": 7592,
      "IV": 7593,
      "PO": 7594,
      "PV": 7595,
      "To": 7596,
      "When": 7597,
      "cm": 7598,
      "eurys": 7599,
      "from": 7600,
      "gus": 7601,
      "guan": 7602,
      "haps": 7603,
      "itid": 7604,
      "ls": 7605,
      "lite": 7606,
      "oot": 7607,
      "si": 7608,
      "tally": 7609,
      "trypsin": 7610,
      "xine": 7611,
      "Ġaim": 7612,
      "Ġtight": 7613,
      "hea": 7614,
      "Ġpac": 7615,
      "Ġcen": 7616,
      "Ġcutaneous": 7617,
      "rady": 7618,
      "Ġanat": 7619,
      "Ġaneurys": 7620,
      "aling": 7621,
      "Ġbodies": 7622,
      "Ġblind": 7623,
      "ishes": 7624,
      "orp": 7625,
      "ecutive": 7626,
      "ospecific": 7627,
      "Ġhow": 7628,
      "eting": 7629,
      "Ġlaryn": 7630,
      "uccin": 7631,
      "Ġisomers": 7632,
      "iline": 7633,
      "Ġdeaza": 7634,
      "Ġbearing": 7635,
      "Ġalle": 7636,
      "ysteroid": 7637,
      "Ġactivate": 7638,
      "ĠCM": 7639,
      "ĠCandida": 7640,
      "Ġdirected": 7641,
      "ĠPossible": 7642,
      "Ġheated": 7643,
      "Ġpreincubation": 7644,
      "Ġpresc": 7645,
      "ĠDep": 7646,
      "Ġcoat": 7647,
      "Ġcovalently": 7648,
      "apan": 7649,
      "Ġ67": 7650,
      "Ġproteinases": 7651,
      "Ġagarose": 7652,
      "ropy": 7653,
      "Ġdepolarization": 7654,
      "Ġmole": 7655,
      "negative": 7656,
      "Ġionizable": 7657,
      "Ġcaffeine": 7658,
      "Ġrhes": 7659,
      "Ġrumen": 7660,
      "Ġmax": 7661,
      "Ġcarbonic": 7662,
      "venous": 7663,
      "Ġconsecutive": 7664,
      "Ġchromosome": 7665,
      "Ġexcitation": 7666,
      "Ġimmunore": 7667,
      "Ġcardios": 7668,
      "kground": 7669,
      "Ġdelay": 7670,
      "transfer": 7671,
      "tified": 7672,
      "Ġmaintaining": 7673,
      "Ġdissolved": 7674,
      "Ġscattering": 7675,
      "cope": 7676,
      "indolol": 7677,
      "Ġmutation": 7678,
      "Ġmicrov": 7679,
      "ilibrium": 7680,
      "Ġmodify": 7681,
      "Ġfilter": 7682,
      "Ġferredoxin": 7683,
      "Ġtriphosphatase": 7684,
      "Ġtris": 7685,
      "Ġelectrode": 7686,
      "glutamate": 7687,
      "Ġalcohols": 7688,
      "atile": 7689,
      "centration": 7690,
      "Ġpharmacok": 7691,
      "Ġbelong": 7692,
      "Ġstriking": 7693,
      "Ġmaleate": 7694,
      "Ġneural": 7695,
      "Ġzone": 7696,
      "cording": 7697,
      "Ġpentagastrin": 7698,
      "adenine": 7699,
      "Ġcationic": 7700,
      "Ġbromazepam": 7701,
      "Ġepidem": 7702,
      "carbon": 7703,
      "rayfish": 7704,
      "Ġconditioned": 7705,
      "Ġtendon": 7706,
      "ofructokinase": 7707,
      "Ġvacu": 7708,
      "Ġvaccine": 7709,
      "pyrene": 7710,
      "Ġpersons": 7711,
      "Ġnutrient": 7712,
      "Ġcreatinine": 7713,
      "Ġepithelial": 7714,
      "Ġdihydrofolate": 7715,
      "Ġintroduced": 7716,
      "polyacrylamide": 7717,
      "Ġdisappearance": 7718,
      "Ġleucocytes": 7719,
      "Ġpremature": 7720,
      "azolamide": 7721,
      "Ġinfluenza": 7722,
      "Ġseizures": 7723,
      "amethasone": 7724,
      "Neuro": 7725,
      "Ġobjective": 7726,
      "Ġmeningitis": 7727,
      "releasing": 7728,
      "Ġneutrophils": 7729,
      "Ġcytotoxic": 7730,
      "Ġsynaptosomes": 7731,
      "Ġmonolayers": 7732,
      "Ġvasoconstriction": 7733,
      "kinin": 7734,
      "Ġnumerous": 7735,
      "Ġpoisoning": 7736,
      "Ġremarkable": 7737,
      "histidine": 7738,
      "Ġdestroyed": 7739,
      "Ġcooperativity": 7740,
      "Ġmemory": 7741,
      "radykinin": 7742,
      "Ġrhesus": 7743,
      "51": 7744,
      "99": 7745,
      "Am": 7746,
      "App": 7747,
      "DO": 7748,
      "GVH": 7749,
      "Re": 7750,
      "Tyr": 7751,
      "cat": 7752,
      "dem": 7753,
      "gel": 7754,
      "hion": 7755,
      "ire": 7756,
      "lers": 7757,
      "pent": 7758,
      "tak": 7759,
      "uable": 7760,
      "zapine": 7761,
      "Ġide": 7762,
      "reg": 7763,
      "Ġcrayfish": 7764,
      "Ġmus": 7765,
      "icated": 7766,
      "icks": 7767,
      "Ġfusion": 7768,
      "Ġflex": 7769,
      "arrhyth": 7770,
      "osper": 7771,
      "Ġtotally": 7772,
      "ineal": 7773,
      "Ġthyl": 7774,
      "Ġlamb": 7775,
      "Ġlithium": 7776,
      "terial": 7777,
      "Ġcong": 7778,
      "ĠTher": 7779,
      "uridine": 7780,
      "Ġwashed": 7781,
      "Ġ(+)-": 7782,
      "Ġpromo": 7783,
      "Ġbypass": 7784,
      "diazep": 7785,
      "otroph": 7786,
      "otting": 7787,
      "lohexyl": 7788,
      "resting": 7789,
      "Ġattained": 7790,
      "ĠIU": 7791,
      "racet": 7792,
      "Ġcomparing": 7793,
      "Ġsphe": 7794,
      "Ġwhom": 7795,
      "ĠSS": 7796,
      "ĠSpecific": 7797,
      "uginosa": 7798,
      "Ġperhaps": 7799,
      "Ġshape": 7800,
      "Ġ58": 7801,
      "Ġtransplant": 7802,
      "Ġabortion": 7803,
      "ĠDip": 7804,
      "Ġcoinc": 7805,
      "Ġkin": 7806,
      "ĠEEG": 7807,
      "Ġhair": 7808,
      "ĠFSH": 7809,
      "Ġcorrection": 7810,
      "ĠRinger": 7811,
      "Ġmedian": 7812,
      "Ġupper": 7813,
      "tisone": 7814,
      "ethylation": 7815,
      "lines": 7816,
      "Ġanalyz": 7817,
      "Ġflurazepam": 7818,
      "achment": 7819,
      "eptidases": 7820,
      "Ġgluco": 7821,
      "Inc": 7822,
      "Inter": 7823,
      "Ġlipolysis": 7824,
      "Ġlipogenesis": 7825,
      "Ġarteri": 7826,
      "Ġsuppressor": 7827,
      "synthe": 7828,
      "Ġdemonstration": 7829,
      "ĠdeltapH": 7830,
      "Ġemergency": 7831,
      "Ġreduct": 7832,
      "ardiac": 7833,
      "ochondrial": 7834,
      "Ġepsilon": 7835,
      "ĠMgCl": 7836,
      "Ġchronotropic": 7837,
      "Ġthermost": 7838,
      "ĠWithin": 7839,
      "Ġvasop": 7840,
      "Ġsyndromes": 7841,
      "tetracycline": 7842,
      "Ġ1974": 7843,
      "struction": 7844,
      "Ġventral": 7845,
      "Ġdilatation": 7846,
      "Ġpancreas": 7847,
      "Ġterminals": 7848,
      "Ġinfluencing": 7849,
      "irds": 7850,
      "Ġplacenta": 7851,
      "Ġpassage": 7852,
      "Ġshell": 7853,
      "Ġvisible": 7854,
      "methionine": 7855,
      "ĠBiol": 7856,
      "Ġazide": 7857,
      "Ġnitrite": 7858,
      "Ġwidely": 7859,
      "Ġboys": 7860,
      "Ġphysicians": 7861,
      "ĠPretreatment": 7862,
      "glycine": 7863,
      "Ġphosphoenolpyruvate": 7864,
      "Ġmothers": 7865,
      "Ġ(-)-": 7866,
      "Ġbenorylate": 7867,
      "Ġstaining": 7868,
      "ĠMAO": 7869,
      "Ġbackground": 7870,
      "Ġmigration": 7871,
      "Ġtetramer": 7872,
      "glucuronidase": 7873,
      "Ġexerted": 7874,
      "Ġparenteral": 7875,
      "Ġacrosin": 7876,
      "Ġstopped": 7877,
      "Ġmacromolec": 7878,
      "Ġaeruginosa": 7879,
      "Ġduct": 7880,
      "Ġpurpose": 7881,
      "Ġtubercul": 7882,
      "Ġaluminum": 7883,
      "uodenal": 7884,
      "Ġtricyclic": 7885,
      "ĠStaphylococcus": 7886,
      "06": 7887,
      "08": 7888,
      "36": 7889,
      "54": 7890,
      "74": 7891,
      "Co": 7892,
      "Hb": 7893,
      "Kinetic": 7894,
      "LS": 7895,
      "Pa": 7896,
      "SC": 7897,
      "],": 7898,
      "dU": 7899,
      "fen": 7900,
      "glyce": 7901,
      "iant": 7902,
      "ler": 7903,
      "nm": 7904,
      "ootic": 7905,
      "oint": 7906,
      "pes": 7907,
      "rids": 7908,
      "zen": 7909,
      "Ġect": 7910,
      "Ġaw": 7911,
      "Ġages": 7912,
      "Ġts": 7913,
      "tiary": 7914,
      "Ġoest": 7915,
      "Ġcre": 7916,
      "Ġcis": 7917,
      "icep": 7918,
      "Ġfen": 7919,
      "olact": 7920,
      "ided": 7921,
      "entanyl": 7922,
      "ulos": 7923,
      "Ġhome": 7924,
      "ĠTyr": 7925,
      "uming": 7926,
      "urified": 7927,
      "urses": 7928,
      "Ġforces": 7929,
      "dii": 7930,
      "otype": 7931,
      "Ġvulg": 7932,
      "Ġdehydro": 7933,
      "Ġonce": 7934,
      "Ġenough": 7935,
      "about": 7936,
      "Ġsud": 7937,
      "ĠChem": 7938,
      "ĠCBA": 7939,
      "Ġeffusion": 7940,
      "antagon": 7941,
      "chicine": 7942,
      "uphen": 7943,
      "pping": 7944,
      "ĠSodium": 7945,
      "ĠPl": 7946,
      "Ġsubf": 7947,
      "Ġnever": 7948,
      "ĠMeasure": 7949,
      "Ġ56": 7950,
      "gesterone": 7951,
      "renal": 7952,
      "ĠHaem": 7953,
      "Ġcovalent": 7954,
      "Ġimplantation": 7955,
      "Ġforming": 7956,
      "Ġcarry": 7957,
      "apati": 7958,
      "rict": 7959,
      "riched": 7960,
      "Ġreacted": 7961,
      "Ġelong": 7962,
      "ceptive": 7963,
      "Ġ74": 7964,
      "Ġdeclined": 7965,
      "Ġunaltered": 7966,
      "ressin": 7967,
      "Ġmonomers": 7968,
      "ramidal": 7969,
      "aching": 7970,
      "arbonyl": 7971,
      "earing": 7972,
      "Ġblocker": 7973,
      "Ġinsoluble": 7974,
      "Ġranges": 7975,
      "Ġexpect": 7976,
      "Ġcalcitonin": 7977,
      "Ġimmunoglobulin": 7978,
      "utamyl": 7979,
      "Ġphysico": 7980,
      "Ġadenylyl": 7981,
      "Ġmucus": 7982,
      "Ġdefic": 7983,
      "Ġhydroxide": 7984,
      "Ġantibacterial": 7985,
      "Ġsulfite": 7986,
      "Ġsched": 7987,
      "Ġscheme": 7988,
      "Ġdescribe": 7989,
      "Ġexaminations": 7990,
      "Ġmutans": 7991,
      "Ġprobable": 7992,
      "Ġcontrary": 7993,
      "Ġflunitrazepam": 7994,
      "aminoethyl": 7995,
      "enicill": 7996,
      "Ġfrequencies": 7997,
      "Ġribosomal": 7998,
      "flat": 7999,
      "ĠJapan": 8000,
      "Ġtitrations": 8001,
      "Ġmediating": 8002,
      "Ġanaesthetized": 8003,
      "Ġaccomplished": 8004,
      "Ġsequences": 8005,
      "Acute": 8006,
      "Ġzero": 8007,
      "Ġhexokinase": 8008,
      "affinity": 8009,
      "Ġmultipl": 8010,
      "phylactic": 8011,
      "Ġdefinite": 8012,
      "unctional": 8013,
      "Ġulce": 8014,
      "Ġnitros": 8015,
      "Ġmovements": 8016,
      "Ġsarc": 8017,
      "mannosidase": 8018,
      "Ġnutritional": 8019,
      "Ġnigra": 8020,
      "Ġtreating": 8021,
      "Ġhybrids": 8022,
      "alkyl": 8023,
      "Ġirreversibly": 8024,
      "Ġelectrolytes": 8025,
      "agglutination": 8026,
      "step": 8027,
      "Ġmosquito": 8028,
      "Ġsubstantia": 8029,
      "Ġsubstantially": 8030,
      "Ġlabeling": 8031,
      "ocyanin": 8032,
      "Ġpapain": 8033,
      "Ġphenothiazines": 8034,
      "Ġdistinguished": 8035,
      "Ġetiology": 8036,
      "Ġsaturable": 8037,
      "Ġsickle": 8038,
      "Ġcitric": 8039,
      "Ġintense": 8040,
      "Ġtwitch": 8041,
      "Ġsweet": 8042,
      "Ġatmosp": 8043,
      "Ġtarget": 8044,
      "Ġmacrophages": 8045,
      "availability": 8046,
      "Ġpostsynaptic": 8047,
      "Ġinterstitial": 8048,
      "taken": 8049,
      "apatite": 8050,
      "34": 8051,
      "BP": 8052,
      "DL": 8053,
      "MB": 8054,
      "Mur": 8055,
      "Py": 8056,
      "SP": 8057,
      "ei": 8058,
      "fib": 8059,
      "haem": 8060,
      "kinase": 8061,
      "lich": 8062,
      "part": 8063,
      "tryptophan": 8064,
      "yramine": 8065,
      "inant": 8066,
      "head": 8067,
      "tiated": 8068,
      "tead": 8069,
      "Ġsorb": 8070,
      "rozen": 8071,
      "Ġanem": 8072,
      "Ġanth": 8073,
      "Ġanomal": 8074,
      "Ġwet": 8075,
      "Ġbradykinin": 8076,
      "Ġdrain": 8077,
      "Ġmakes": 8078,
      "ories": 8079,
      "ices": 8080,
      "Ġflas": 8081,
      "anesthe": 8082,
      "ars": 8083,
      "Ġrecur": 8084,
      "idosis": 8085,
      "ulent": 8086,
      "ulins": 8087,
      "Ġhors": 8088,
      "Ġname": 8089,
      "ĠTP": 8090,
      "Ġthio": 8091,
      "Ġthoracic": 8092,
      "romycin": 8093,
      "ilic": 8094,
      "Ġchor": 8095,
      "Ġexcell": 8096,
      "Ġencoun": 8097,
      "racy": 8098,
      "racil": 8099,
      "veries": 8100,
      "opolys": 8101,
      "adm": 8102,
      "mentary": 8103,
      "ĠPC": 8104,
      "ĠPD": 8105,
      "ĠPco": 8106,
      "Ġpreferred": 8107,
      "Ġcontin": 8108,
      "Ġpreserv": 8109,
      "Ġleth": 8110,
      "Ġtransaminase": 8111,
      "Ġtransitions": 8112,
      "ĠHuman": 8113,
      "Ġapplic": 8114,
      "Ġcool": 8115,
      "Ġeffectors": 8116,
      "apse": 8117,
      "Ġphosphofructokinase": 8118,
      "Ġreaching": 8119,
      "Ġreactivation": 8120,
      "Ġdecay": 8121,
      "Ġdrin": 8122,
      "illed": 8123,
      "Ġvaluable": 8124,
      "Ġrelie": 8125,
      "Ġ105": 8126,
      "ĠRel": 8127,
      "Ġmedicine": 8128,
      "Ġplan": 8129,
      "Ġevent": 8130,
      "Ġcold": 8131,
      "Ġindication": 8132,
      "Ġplastic": 8133,
      "Ġbiogenic": 8134,
      "Ġundertaken": 8135,
      "Ġrough": 8136,
      "yruvate": 8137,
      "vian": 8138,
      "Ġnuclease": 8139,
      "Ġreleasing": 8140,
      "Ġinstead": 8141,
      "reliminary": 8142,
      "Ġendoplasmic": 8143,
      "Ġsynerg": 8144,
      "Ġhydrolytic": 8145,
      "Ġdependency": 8146,
      "Ġhydroxylamine": 8147,
      "proton": 8148,
      "Ġmyoglobin": 8149,
      "Ġgiving": 8150,
      "exp": 8151,
      "Ġpea": 8152,
      "glucuronic": 8153,
      "Ġmutations": 8154,
      "Ġstimulant": 8155,
      "Ġstimulates": 8156,
      "Ġacetylcholinesterase": 8157,
      "Ġepis": 8158,
      "Ġmodifications": 8159,
      "ishable": 8160,
      "Ġtriiodothyronine": 8161,
      "onuclear": 8162,
      "Ġtrif": 8163,
      "osaic": 8164,
      "Ġchlorophyll": 8165,
      "Ġestimate": 8166,
      "Ġtubule": 8167,
      "greater": 8168,
      "Ġtertiary": 8169,
      "glutamine": 8170,
      "butazone": 8171,
      "Ġpractically": 8172,
      "ammation": 8173,
      "Ġmentioned": 8174,
      "ĠAdministration": 8175,
      "cortisone": 8176,
      "Ġdeoxyhemoglobin": 8177,
      "ĠConc": 8178,
      "NADH": 8179,
      "caps": 8180,
      "hrlich": 8181,
      "Ġrecipient": 8182,
      "Ġsuccessive": 8183,
      "adrenoceptors": 8184,
      "ĠGVHD": 8185,
      "Ġdifferentiated": 8186,
      "Ġcapsular": 8187,
      "Ġdesignated": 8188,
      "Ġcorticosteroids": 8189,
      "Ġuterus": 8190,
      "infected": 8191,
      "Ġcatalyze": 8192,
      "Ġlobe": 8193,
      "ograms": 8194,
      "Ġdiscriminative": 8195,
      "Ġoxyhemoglobin": 8196,
      "Ġtransformed": 8197,
      "Ġferricyanide": 8198,
      "Ġlinkages": 8199,
      "Ġhemorrhagic": 8200,
      "...": 8201,
      "Ġmicrobial": 8202,
      "Ġextended": 8203,
      "Ġphenothiazine": 8204,
      "ybean": 8205,
      "patients": 8206,
      "Ġimmunosuppressive": 8207,
      "bisphosphate": 8208,
      "Ġarthritis": 8209,
      "ĠPhotosystem": 8210,
      "Ġsympathomimetic": 8211,
      "ĠOptimal": 8212,
      "Ġlectins": 8213,
      "Ġdiabetes": 8214,
      "Ġbleeding": 8215,
      "Ġchallenge": 8216,
      "Ġunderstanding": 8217,
      "Ġanticholinergic": 8218,
      "Ġbarbiturates": 8219,
      "Ġventricle": 8220,
      "Ġtaurocholate": 8221,
      "Ġevidenced": 8222,
      "ultiple": 8223,
      "nucleotidase": 8224,
      "Ġdiameter": 8225,
      "Ġundescended": 8226,
      "Ġfluctu": 8227,
      "Ġvulgaris": 8228,
      "Ġhorses": 8229,
      "Ġexcellent": 8230,
      "43": 8231,
      "Binding": 8232,
      "IC": 8233,
      "MC": 8234,
      "Mon": 8235,
      "PL": 8236,
      "Poly": 8237,
      "Plasma": 8238,
      "ber": 8239,
      "bearing": 8240,
      "circ": 8241,
      "eucine": 8242,
      "furan": 8243,
      "iose": 8244,
      "ridine": 8245,
      "son": 8246,
      "tum": 8247,
      "urable": 8248,
      "wing": 8249,
      "inities": 8250,
      "inizing": 8251,
      "inositol": 8252,
      "rebs": 8253,
      "enes": 8254,
      "ĠpO": 8255,
      "Ġpineal": 8256,
      "ratase": 8257,
      "rocal": 8258,
      "Ġanionic": 8259,
      "Ġaniline": 8260,
      "Ġdra": 8261,
      "Ġmyc": 8262,
      "Ġmosaic": 8263,
      "Ġfentanyl": 8264,
      "olgi": 8265,
      "Ġreabsorption": 8266,
      "ato": 8267,
      "atri": 8268,
      "atoid": 8269,
      "Ġnight": 8270,
      "ĠType": 8271,
      "Ġgly": 8272,
      "Ġgerm": 8273,
      "ume": 8274,
      "imic": 8275,
      "amn": 8276,
      "Ġproj": 8277,
      "yltransferase": 8278,
      "diazepam": 8279,
      "otonic": 8280,
      "igm": 8281,
      "ocicep": 8282,
      "Ġasparag": 8283,
      "Ġrace": 8284,
      "ĠClinical": 8285,
      "elles": 8286,
      "emat": 8287,
      "Ġcompos": 8288,
      "thale": 8289,
      "Ġspeed": 8290,
      "ĠSur": 8291,
      "ĠPatients": 8292,
      "reasing": 8293,
      "Ġcontamination": 8294,
      "Ġperman": 8295,
      "Ġperitoneal": 8296,
      "ĠMyc": 8297,
      "ĠDec": 8298,
      "ĠDifferen": 8299,
      "roscopic": 8300,
      "ĠBP": 8301,
      "ĠEhrlich": 8302,
      "Ġelder": 8303,
      "ĠFlu": 8304,
      "Ġrelations": 8305,
      "ĠKrebs": 8306,
      "Ġamide": 8307,
      "ĠOr": 8308,
      "Ġsubstantial": 8309,
      "Ġserved": 8310,
      "Ġoperated": 8311,
      "phosphogluc": 8312,
      "ochrom": 8313,
      "Ġimmature": 8314,
      "Ġfungi": 8315,
      "aceu": 8316,
      "Ġcycl": 8317,
      "Ġunderwent": 8318,
      "raphic": 8319,
      "Ġphenolic": 8320,
      "Ġhyperb": 8321,
      "Ġsynov": 8322,
      "Ġdescription": 8323,
      "Ġfiber": 8324,
      "inescence": 8325,
      "armaceu": 8326,
      "liquid": 8327,
      "Ġradiation": 8328,
      "Ġbuffered": 8329,
      "Ġfilt": 8330,
      "Ġneutralization": 8331,
      "etalol": 8332,
      "Ġestrogen": 8333,
      "othermic": 8334,
      "Ġattribut": 8335,
      "glutamic": 8336,
      "acetylgluc": 8337,
      "Ġbenzyl": 8338,
      "arboxylic": 8339,
      "Ġphotosynthetic": 8340,
      "atibility": 8341,
      "ophila": 8342,
      "Ġconsistently": 8343,
      "Ġcontinuously": 8344,
      "Ġanaesthetic": 8345,
      "Ġinducing": 8346,
      "obarbitone": 8347,
      "Ġproviding": 8348,
      "Ġparathyroid": 8349,
      "propranolol": 8350,
      "iazid": 8351,
      "Ġnoradrenergic": 8352,
      "olecithin": 8353,
      "Ġcount": 8354,
      "Ġcounts": 8355,
      "angiotensin": 8356,
      "Ġthermophilic": 8357,
      "Ġpyrophosph": 8358,
      "Ġdisplay": 8359,
      "1974": 8360,
      "Ġspermatogenesis": 8361,
      "Ġpossessed": 8362,
      "Ġstabilization": 8363,
      "enteric": 8364,
      "Ġsplen": 8365,
      "Ġsexual": 8366,
      "Ġundergoes": 8367,
      "Ġadjust": 8368,
      "rospora": 8369,
      "Ġembryonic": 8370,
      "Ġexperimentally": 8371,
      "Ġacyltransferase": 8372,
      "Ġluminal": 8373,
      "ĠEffect": 8374,
      "Ġinflammation": 8375,
      "Ġconsequences": 8376,
      "Ġtachy": 8377,
      "Ġbehavioural": 8378,
      "Ġmammals": 8379,
      "Ġextensively": 8380,
      "Ġprogressively": 8381,
      "Ġsensory": 8382,
      "Ġaccuracy": 8383,
      "Ġelastin": 8384,
      "Ġthrombin": 8385,
      "Ġefficiently": 8386,
      "Ġlinkage": 8387,
      "Ġintramuscular": 8388,
      "Oxygen": 8389,
      "osidases": 8390,
      "Ġtetrahydro": 8391,
      "Ġfibrillation": 8392,
      "Ġantidepressants": 8393,
      "rachid": 8394,
      "Ġstoichiometry": 8395,
      "ĠCBF": 8396,
      "filtration": 8397,
      "Ġingestion": 8398,
      "opterin": 8399,
      "Ġcorpus": 8400,
      "Ġbiotin": 8401,
      "Ġportal": 8402,
      "electrophoresis": 8403,
      "Ġchamber": 8404,
      "Ġenthalpy": 8405,
      "arrhythmic": 8406,
      "07": 8407,
      "58": 8408,
      "82": 8409,
      "After": 8410,
      "BSA": 8411,
      "Cor": 8412,
      "Differen": 8413,
      "ED": 8414,
      "Ed": 8415,
      "Evaluation": 8416,
      "FA": 8417,
      "FAD": 8418,
      "Further": 8419,
      "Factors": 8420,
      "LL": 8421,
      "Mg": 8422,
      "Men": 8423,
      "Med": 8424,
      "PT": 8425,
      "Per": 8426,
      "RA": 8427,
      "araldehyde": 8428,
      "buff": 8429,
      "blast": 8430,
      "da": 8431,
      "dri": 8432,
      "drin": 8433,
      "gra": 8434,
      "glycer": 8435,
      "gyline": 8436,
      "hum": 8437,
      "natal": 8438,
      "piper": 8439,
      "rhen": 8440,
      "trim": 8441,
      "urop": 8442,
      "vity": 8443,
      "zation": 8444,
      "Ġavian": 8445,
      "Ġtone": 8446,
      "rec": 8447,
      "rein": 8448,
      "recip": 8449,
      "entially": 8450,
      "Ġpyl": 8451,
      "Ġporphyrin": 8452,
      "Ġcir": 8453,
      "Ġcypro": 8454,
      "Ġbow": 8455,
      "Ġbund": 8456,
      "Ġbreas": 8457,
      "Ġbruc": 8458,
      "isomer": 8459,
      "Ġdup": 8460,
      "oric": 8461,
      "eria": 8462,
      "arith": 8463,
      "arding": 8464,
      "arginine": 8465,
      "idone": 8466,
      "Ġhard": 8467,
      "ĠTrich": 8468,
      "etin": 8469,
      "acent": 8470,
      "Ġconformations": 8471,
      "Ġcondens": 8472,
      "amol": 8473,
      "amid": 8474,
      "otrophic": 8475,
      "ilor": 8476,
      "Ġvic": 8477,
      "Ġexert": 8478,
      "Ġenerg": 8479,
      "ify": 8480,
      "ĠCA": 8481,
      "ĠCNS": 8482,
      "irradi": 8483,
      "iatic": 8484,
      "ĠSD": 8485,
      "ĠSw": 8486,
      "mental": 8487,
      "oreal": 8488,
      "ĠMy": 8489,
      "ĠDes": 8490,
      "ĠHel": 8491,
      "ĠHigh": 8492,
      "erat": 8493,
      "Ġ46": 8494,
      "ĠBac": 8495,
      "Ġsero": 8496,
      "ĠED": 8497,
      "arities": 8498,
      "Ġassimil": 8499,
      "ĠKCN": 8500,
      "Ġpositions": 8501,
      "Ġserv": 8502,
      "Ġpolyc": 8503,
      "Ġplays": 8504,
      "ximum": 8505,
      "Ġcolchicine": 8506,
      "Ġcompleted": 8507,
      "Ġmonos": 8508,
      "Ġrun": 8509,
      "Ġsampl": 8510,
      "Ġinteract": 8511,
      "ctomy": 8512,
      "arbon": 8513,
      "Ġisoleucine": 8514,
      "Ġaffinities": 8515,
      "Ġcarboxy": 8516,
      "Ġblockad": 8517,
      "Ġequine": 8518,
      "Ġrepressed": 8519,
      "vived": 8520,
      "Ġnucleic": 8521,
      "Ġ98": 8522,
      "Ġdistrib": 8523,
      "relation": 8524,
      "Ġliposomes": 8525,
      "hydant": 8526,
      "Ġimmunized": 8527,
      "inson": 8528,
      "Ġhistochemical": 8529,
      "omestic": 8530,
      "Ġdefective": 8531,
      "Ġdetec": 8532,
      "Ġpathophys": 8533,
      "Ġdescribes": 8534,
      "Ġfreezing": 8535,
      "Ġselection": 8536,
      "Ġphosphorus": 8537,
      "olipase": 8538,
      "Ġsustained": 8539,
      "Ġcarboxylic": 8540,
      "Ġacetazolamide": 8541,
      "Ġribulose": 8542,
      "effects": 8543,
      "Ġhypoxemia": 8544,
      "glutaminase": 8545,
      "otransformation": 8546,
      "Ġ160": 8547,
      "Ġ1973": 8548,
      "Ġneuramin": 8549,
      "chlorophenyl": 8550,
      "Ġpreventive": 8551,
      "Ġindependently": 8552,
      "Ġrepresented": 8553,
      "Ġcyan": 8554,
      "Ġpeptic": 8555,
      "Ġfocus": 8556,
      "Ġwalls": 8557,
      "methoxy": 8558,
      "ifferent": 8559,
      "Ġweakly": 8560,
      "Ġazo": 8561,
      "Ġregardless": 8562,
      "ylethanolamine": 8563,
      "Ġinterpretation": 8564,
      "lactam": 8565,
      "Ġinterfere": 8566,
      "Ġvagus": 8567,
      "Ġborate": 8568,
      "Ġconnected": 8569,
      "Ġlasting": 8570,
      "Ġteeth": 8571,
      "Ġsetting": 8572,
      "Ġprecipitated": 8573,
      "Ġmarkers": 8574,
      "Ġparticipation": 8575,
      "Ġdetergents": 8576,
      "cycl": 8577,
      "Ġallogeneic": 8578,
      "Ġrecognized": 8579,
      "Ġpalmit": 8580,
      "Ġclozapine": 8581,
      "oxyphene": 8582,
      "heptadine": 8583,
      "Ġtriglycerides": 8584,
      "Ġkilled": 8585,
      "ĠMaximal": 8586,
      "Ġinfluenzae": 8587,
      "Ġsupplemented": 8588,
      "Arg": 8589,
      "Ġspike": 8590,
      "Ġdecomposition": 8591,
      "Ġentirely": 8592,
      "Ġdocum": 8593,
      "Ġdisplacement": 8594,
      "Ġbioavailability": 8595,
      "Ġjumping": 8596,
      "Ġplasminogen": 8597,
      "Ġcircumstances": 8598,
      "chloromercuribenzoate": 8599,
      "Structure": 8600,
      "Ġexplanation": 8601,
      "Ġreversal": 8602,
      "oserine": 8603,
      "Ġneglig": 8604,
      "Ġtranquilizers": 8605,
      "Ġthylak": 8606,
      "diazepoxide": 8607,
      "Ġvasopressin": 8608,
      "Ġsudden": 8609,
      "uphenazine": 8610,
      "thalein": 8611,
      "Ġelderly": 8612,
      "Ġattributable": 8613,
      "rachidonic": 8614,
      "rhenius": 8615,
      "))": 8616,
      "150": 8617,
      "64": 8618,
      "73": 8619,
      "Blood": 8620,
      "Cont": 8621,
      "ER": 8622,
      "EDTA": 8623,
      "ND": 8624,
      "PI": 8625,
      "Quantitative": 8626,
      "RF": 8627,
      "Specific": 8628,
      "arent": 8629,
      "be": 8630,
      "called": 8631,
      "dle": 8632,
      "eb": 8633,
      "erac": 8634,
      "fuc": 8635,
      "flora": 8636,
      "gut": 8637,
      "kal": 8638,
      "ld": 8639,
      "na": 8640,
      "nor": 8641,
      "ohydrolase": 8642,
      "uts": 8643,
      "wt": 8644,
      "inium": 8645,
      "heal": 8646,
      "hema": 8647,
      "Ġcast": 8648,
      "rared": 8649,
      "rotic": 8650,
      "asion": 8651,
      "esia": 8652,
      "iso": 8653,
      "itals": 8654,
      "itinase": 8655,
      "Ġdomestic": 8656,
      "Ġmaturation": 8657,
      "icochemical": 8658,
      "Ġfist": 8659,
      "ani": 8660,
      "olo": 8661,
      "Ġhipp": 8662,
      "acids": 8663,
      "Ġlas": 8664,
      "Ġgiant": 8665,
      "Ġ(+/-": 8666,
      "amate": 8667,
      "amidine": 8668,
      "erep": 8669,
      "ticle": 8670,
      "utamine": 8671,
      "Ġdeaminase": 8672,
      "tivated": 8673,
      "ĠAT": 8674,
      "ocine": 8675,
      "Ġassembly": 8676,
      "ogurt": 8677,
      "Ġaltitude": 8678,
      "Ġchim": 8679,
      "ionyl": 8680,
      "Ġdiarr": 8681,
      "ellum": 8682,
      "ellifer": 8683,
      "quine": 8684,
      "opus": 8685,
      "optim": 8686,
      "opeptides": 8687,
      "ĠSignificant": 8688,
      "ĠPoly": 8689,
      "oxication": 8690,
      "Ġcontamin": 8691,
      "ĠMon": 8692,
      "ĠMIF": 8693,
      "Ġ52": 8694,
      "Ġleaves": 8695,
      "Ġformaldehyde": 8696,
      "maximal": 8697,
      "Ġ64": 8698,
      "Ġoxide": 8699,
      "Ġreacting": 8700,
      "Ġhyperac": 8701,
      "ĠFAD": 8702,
      "ĠLP": 8703,
      "illar": 8704,
      "temp": 8705,
      "Ġindometh": 8706,
      "ĠGolgi": 8707,
      "Ġarise": 8708,
      "Ġmetabolized": 8709,
      "ethylmaleimide": 8710,
      "ximide": 8711,
      "Ġlytic": 8712,
      "Ġmeasurable": 8713,
      "sibility": 8714,
      "Ġindicator": 8715,
      "Ġcaudate": 8716,
      "Ġyellow": 8717,
      "Ġyogurt": 8718,
      "Ġoptic": 8719,
      "Ġaffects": 8720,
      "Ġregression": 8721,
      "Ġsurvived": 8722,
      "derived": 8723,
      "Ġconsist": 8724,
      "Ġquick": 8725,
      "emperature": 8726,
      "iodo": 8727,
      "ptake": 8728,
      "Ġsterol": 8729,
      "Ġhyperther": 8730,
      "Ġendomet": 8731,
      "Ġthereby": 8732,
      "ediat": 8733,
      "Ġtyramine": 8734,
      "Ġmalaria": 8735,
      "Ġlocation": 8736,
      "Ġgenetically": 8737,
      "Ġhomologous": 8738,
      "Ġclotting": 8739,
      "Ġjoint": 8740,
      "Ġurate": 8741,
      "iorid": 8742,
      "Ġrefrac": 8743,
      "Ġstimulants": 8744,
      "arabino": 8745,
      "Ġsurfact": 8746,
      "Ġglutaminase": 8747,
      "ometrically": 8748,
      "okes": 8749,
      "oking": 8750,
      "Ġdevelopmental": 8751,
      "hydroxybutyrate": 8752,
      "olipid": 8753,
      "Ġageing": 8754,
      "Ġenhances": 8755,
      "Ġtransferrin": 8756,
      "Ġreversibly": 8757,
      "Ġbuffering": 8758,
      "Ġconfigu": 8759,
      "Ġlimiting": 8760,
      "Ġgenital": 8761,
      "butolol": 8762,
      "labile": 8763,
      "Ġplateau": 8764,
      "Ġtaking": 8765,
      "Ġperoxidation": 8766,
      "Ġbiologically": 8767,
      "Ġsequential": 8768,
      "Ġaggregates": 8769,
      "Ġnodes": 8770,
      "propyl": 8771,
      "Ġretinal": 8772,
      "Ġprofound": 8773,
      "risk": 8774,
      "Ġaccompanying": 8775,
      "Ġclassification": 8776,
      "Ġtrace": 8777,
      "165": 8778,
      "Ġsemi": 8779,
      "Ġethylenediamine": 8780,
      "Ġaxonal": 8781,
      "Ġillumination": 8782,
      "Ġheld": 8783,
      "Ġsalicylic": 8784,
      "Ġchloroplast": 8785,
      "ĠArrhenius": 8786,
      "Ġdisturbance": 8787,
      "ĠGVHR": 8788,
      "Ġcapsule": 8789,
      "Ġmelting": 8790,
      "Ġseparately": 8791,
      "oreceptors": 8792,
      "Ġketamine": 8793,
      "Ġcorticosterone": 8794,
      "Ġcolonies": 8795,
      "Experimental": 8796,
      "Ġpolymerization": 8797,
      "acylglycerol": 8798,
      "Ġmedullary": 8799,
      "oxidized": 8800,
      "Ġprecipitate": 8801,
      "Ġreasons": 8802,
      "ĠRhiz": 8803,
      "Ġhemodynamics": 8804,
      "Ġprograms": 8805,
      "Ġhence": 8806,
      "Ġamniotic": 8807,
      "Ġisomerization": 8808,
      "Ġsubcutaneous": 8809,
      "olymer": 8810,
      "olymph": 8811,
      "Ġpicture": 8812,
      "Ġinnervation": 8813,
      "Ġdominant": 8814,
      "Ġseizure": 8815,
      "Ġoxalate": 8816,
      "Ġbulk": 8817,
      "Ġthyroxine": 8818,
      "Ġdynamics": 8819,
      "Ġdehydratase": 8820,
      "Ġgradually": 8821,
      "Ġputative": 8822,
      "Ġstrips": 8823,
      "Ġischaemia": 8824,
      "Ġdexamethasone": 8825,
      "Ġadditive": 8826,
      "ĠNeurospora": 8827,
      "Ġshunt": 8828,
      "Ġstaphylococcal": 8829,
      "Ġamphib": 8830,
      "Ġenvelope": 8831,
      "Ġcommercial": 8832,
      "Ġforest": 8833,
      "Ġarylsulphatase": 8834,
      "Ġtightly": 8835,
      "racetamol": 8836,
      "Ġnamely": 8837,
      "Ġencountered": 8838,
      "Ġbreast": 8839,
      "Ġindomethacin": 8840,
      "78": 8841,
      "Chemical": 8842,
      "Ki": 8843,
      "ah": 8844,
      "for": 8845,
      "hab": 8846,
      "hav": 8847,
      "my": 8848,
      "mum": 8849,
      "non": 8850,
      "stet": 8851,
      "selective": 8852,
      "vance": 8853,
      "Ã©": 8854,
      "inder": 8855,
      "Ġaflat": 8856,
      "Ġtas": 8857,
      "Ġtended": 8858,
      "heximide": 8859,
      "ret": 8860,
      "Ġsten": 8861,
      "ĠpA": 8862,
      "Ġpot": 8863,
      "Ġpsi": 8864,
      "Ġcut": 8865,
      "Ġcup": 8866,
      "ĠcGMP": 8867,
      "Ġinositol": 8868,
      "rab": 8869,
      "Ġantiv": 8870,
      "Ġways": 8871,
      "Ġbot": 8872,
      "Ġbrid": 8873,
      "esare": 8874,
      "ises": 8875,
      "Ġderep": 8876,
      "Ġmast": 8877,
      "Ġmill": 8878,
      "Ġmurine": 8879,
      "orus": 8880,
      "ortions": 8881,
      "Ġfrozen": 8882,
      "erin": 8883,
      "ola": 8884,
      "olig": 8885,
      "olem": 8886,
      "Ġrein": 8887,
      "osoma": 8888,
      "lytic": 8889,
      "Ġharm": 8890,
      "Ġacqui": 8891,
      "ĠTwenty": 8892,
      "Ġprosp": 8893,
      "diphosphate": 8894,
      "ili": 8895,
      "Ġbeads": 8896,
      "ĠAP": 8897,
      "ĠAct": 8898,
      "Ġchicks": 8899,
      "Ġexchan": 8900,
      "Ġenrich": 8901,
      "Ġcompact": 8902,
      "Ġcompare": 8903,
      "Ġcomplicated": 8904,
      "Ġacidified": 8905,
      "Ġincre": 8906,
      "Ġaddic": 8907,
      "ĠNSI": 8908,
      "ĠSystem": 8909,
      "ĠPV": 8910,
      "ĠPo": 8911,
      "ĠPhe": 8912,
      "luoro": 8913,
      "rip": 8914,
      "oxo": 8915,
      "oxamine": 8916,
      "Ġparacetamol": 8917,
      "Ġlev": 8918,
      "ĠDL": 8919,
      "ĠDNase": 8920,
      "ĠHydro": 8921,
      "ĠBeta": 8922,
      "ĠEPR": 8923,
      "apyridine": 8924,
      "Ġmeat": 8925,
      "Ġ62": 8926,
      "Ġreacts": 8927,
      "Ġhydrocortisone": 8928,
      "Ġunc": 8929,
      "Ġunrelated": 8930,
      "Ġlies": 8931,
      "Ġmethane": 8932,
      "Ġsignals": 8933,
      "Ġindole": 8934,
      "Ġantisera": 8935,
      "Ġamyg": 8936,
      "ophosph": 8937,
      "azocine": 8938,
      "ĠWA": 8939,
      "Ġinteresting": 8940,
      "Ġregarded": 8941,
      "Ġcycles": 8942,
      "Ġaccord": 8943,
      "key": 8944,
      "Ġexcited": 8945,
      "Ġinsect": 8946,
      "hydroxylation": 8947,
      "hydroxysteroid": 8948,
      "Ġuric": 8949,
      "ĠVal": 8950,
      "Ġendo": 8951,
      "Ġendotoxin": 8952,
      "umbellifer": 8953,
      "Ġtryptic": 8954,
      "Ġdescending": 8955,
      "Ġtherapeu": 8956,
      "Ġsulfur": 8957,
      "Ġclamp": 8958,
      "Ġjust": 8959,
      "Ġscore": 8960,
      "Ġscanning": 8961,
      "Ġcholest": 8962,
      "amicin": 8963,
      "Ġsoft": 8964,
      "Ġsoybean": 8965,
      "Ġlysolecithin": 8966,
      "Ġepoxide": 8967,
      "Ġtritiated": 8968,
      "Ġneutralizing": 8969,
      "Ġpigment": 8970,
      "Ġantigenic": 8971,
      "Ġaspartic": 8972,
      "ospitals": 8973,
      "Ġsupers": 8974,
      "Ġanesthetic": 8975,
      "Ġribosomes": 8976,
      "Ġtubules": 8977,
      "othel": 8978,
[...]
